, 146805425
. 128661007
de 81673059
" 68075167
la 46720979
en 35121205
der 29483420
) 29473053
( 29419894
a 27957264
die 22438757
und 20327710
el 19003684
в 18754006
in 18499530
le 18363616
des 17520601
y 15797922
et 15523745
， 15190970
и 14264317
l' 13302324
un 13004887
que 12476367
- 11087215
les 10641318
von 10531547
er 10470357
: 10283988
se 10041405
на 9858071
es 9785968
的 9573621
est 9476377
du 9250935
d' 9104935
den 9089996
。 9015576
im 8663783
los 8090789
del 7700934
das 7070204
il 7050790
mit 6926438
une 6655183
an 6345108
-@@ 5907583
dans 5649204
wurde 5606447
ist 5565053
als 5545371
dem 5473629
con 5459444
por 5436279
с 5424939
au 5296075
su 5204510
par 5076579
las 4976504
una 4891531
zu 4859191
ein 4855536
auf 4759757
' 4722796
، 4673201
fur 4644664
o 4623738
eine 4622803
al 4481383
В 4294541
re@@ 4218911
pour 4122870
son 4081731
في 4074891
sich 4069568
; 4032433
war 3853552
ver@@ 3829074
er@@ 3673743
am 3661404
nach 3653246
te 3641840
qui 3593123
、 3532568
sur 3313369
года 3288839
s 3278400
aus 3224119
auch 3220126
in@@ 3198207
/ 3168510
como 3154617
en@@ 3146570
para 3134050
s@@ 3113432
sie 3084995
bei 3020093
ten 2985435
bis 2951970
an@@ 2879911
t 2871813
在 2832150
ge@@ 2825166
من 2823595
по 2734171
от 2728289
de@@ 2672363
elle 2657828
fue 2641022
avec 2638578
% 2632448
as 2623796
e 2559184
ar 2542379
al@@ 2537672
ou 2528646
be@@ 2511382
году 2499064
ado 2497117
е 2487767
os 2481335
是 2461822
ab@@ 2449570
к 2440746
ve 2413411
не 2405385
sa 2397242
ne 2387912
zum 2387330
co 2361744
ar@@ 2359555
va 2356263
einer 2335426
the 2306949
1 2277151
t@@ 2249757
2 2242868
plus 2242498
） 2241515
no 2230081
（ 2226108
ce 2209900
on 2199557
um 2190931
mot 2181580
entre 2170828
durch 2102935
aux 2093147
da 2070107
ung 2056838
e@@ 2049925
o@@ 2048706
nam 2024139
sont 1999671
из 1984167
του 1971820
за 1946360
n@@ 1902991
mas 1883529
και 1875234
so 1873028
trong 1867523
ses 1867414
ch@@ 1859706
3 1853439
ein@@ 1842834
ischen 1840737
ete 1826274
werden 1817389
einem 1811833
z@@ 1807363
sch@@ 1803841
cua 1795026
sind 1791507
nicht 1757822
aus@@ 1757483
ada 1757276
а 1750072
es@@ 1742286
s' 1735370
ent 1727114
был 1720608
zur 1703996
wird 1702031
đuoc 1699823
у 1668431
g@@ 1663578
el@@ 1659281
ant 1652921
uber 1650973
r@@ 1650408
lo 1647919
d@@ 1638480
нои 1629854
ent@@ 1624225
einen 1619049
di@@ 1608015
acion 1606932
qu' 1600756
p@@ 1586514
vor@@ 1584797
4 1584555
con@@ 1574474
i@@ 1574099
or@@ 1573881
не@@ 1562034
ia 1560316
ation 1559525
ro@@ 1556411
i 1556361
is@@ 1555808
ta 1546869
m 1545226
ie 1542109
f@@ 1530568
sus 1529374
oder 1525756
loai 1525103
c@@ 1524207
co@@ 1518003
un@@ 1507816
что 1507436
क 1501074
но 1494291
l@@ 1482040
le@@ 1479298
wurden 1473328
ных 1464727
和 1463479
st@@ 1450905
on@@ 1425498
lo@@ 1419523
d 1414622
k@@ 1412834
ische 1410340
5 1409401
comme 1408811
se@@ 1397301
per@@ 1396956
as@@ 1396225
της 1392445
ла 1387484
по@@ 1386581
το 1385732
人 1375128
unter 1373570
до 1373278
ter 1367611
ano 1354513
cette 1353835
mar@@ 1352754
esta 1351047
ли 1348905
b@@ 1342202
m@@ 1341001
ного 1338606
ныи 1337620
n 1332646
у@@ 1327630
на@@ 1327172
at@@ 1324989
dass 1312916
ac@@ 1299353
для 1298627
z 1297239
за@@ 1297130
deux 1291336
его 1286853
is 1286558
了 1285202
us 1279719
л 1277589
10 1266976
era 1265931
ados 1265376
jahr 1262274
6 1256126
par@@ 1252230
auf@@ 1250000
ho 1249755
of 1245769
v@@ 1245322
it@@ 1238577
ные 1238026
скои 1230453
ee 1223468
ह 1222791
ского 1222018
tes 1220810
как 1220246
am@@ 1217023
wie 1204233
seine 1201955
一 1194784
u@@ 1192592
ка 1190414
ite 1189018
pas 1187881
mais 1181051
он 1174122
। 1172274
l 1171951
有 1170817
a@@ 1169277
على 1165406
su@@ 1165277
т 1163713
sein 1161693
to 1161541
im@@ 1157433
vor 1153723
man 1153382
ки 1153014
2010 1142143
ont 1141238
car@@ 1141159
j@@ 1140715
nay 1138405
о 1136511
il@@ 1136104
ag@@ 1133902
et@@ 1129789
em@@ 1126830
при@@ 1123003
um@@ 1122997
vi@@ 1122568
mo@@ 1121902
про@@ 1120184
y@@ 1119760
ya 1109438
да 1103821
ungen 1101104
ur@@ 1100916
dos 1100726
h@@ 1099295
cac 1095455
ol@@ 1092363
7 1092054
uber@@ 1092020
8 1091971
म 1091766
се 1090591
ab 1089984
с@@ 1084481
este 1082187
ne@@ 1080617
bo@@ 1079366
b 1079229
pre@@ 1077284
po@@ 1072306
ales 1071142
vom 1068262
mon@@ 1061211
km 1057809
ando 1055097
tambien 1050449
ri@@ 1046638
apres 1045792
nur 1042810
ным 1040752
ti@@ 1039838
to@@ 1039022
ber@@ 1035918
qu@@ 1035049
anos 1034904
ная 1033866
ы 1031692
do 1028683
ul@@ 1027862
ad@@ 1025507
si 1024517
ha 1020941
скии 1020683
中 1017130
zeit 1015789
te@@ 1014266
tu 1013563
seit 1011829
ter@@ 1011095
c 1010187
са 1009423
fait 1008592
her@@ 1007624
seiner 1002879
so@@ 1001576
u 1000480
hatte 994150
20 993759
noch 993637
ان 992630
ica 991679
А@@ 991431
sowie 987913
до@@ 983478
des@@ 981479
hat 979864
w@@ 978044
ser 977191
ap@@ 973826
sen@@ 971141
ном 970545
bir 963417
в@@ 962726
bi@@ 962497
bar@@ 961068
ale 960471
м 959520
ли@@ 958870
g 955999
pro@@ 955958
unter@@ 955109
2011 953241
η 952035
την 950189
gen@@ 944279
aber 940013
15 938233
ile 937874
jahre 936910
age 935437
san 930251
я 929113
n' 927607
ใน 927603
est@@ 926774
stadt 925297
9 924822
diese 924655
ischer 924281
tres 922457
12 922304
ko@@ 921871
вы@@ 920998
ко@@ 919954
au@@ 919884
ное 919862
д@@ 918833
и@@ 918221
zwei 915114
ces 912226
ern 911727
ท 910439
ب@@ 910373
ре@@ 908904
it 908629
ger@@ 908399
ic@@ 905363
dieser 904428
स 903983
ро@@ 903504
* 903195
lichen 900611
ende 899399
ico 898958
ca 898390
та 896380
no@@ 893787
为 892266
2009 887391
ни@@ 886722
الى 886535
ir@@ 885412
ers 883625
at 883619
2008 882757
ten@@ 881187
ine 880477
tr@@ 877584
zwischen 876862
k 875553
adas 874702
us@@ 873206
С@@ 871583
waren 869889
2012 867429
_ 866128
ле@@ 864433
о@@ 863722
ma@@ 862834
со@@ 861697
》 860543
《 860491
ο 860243
пере@@ 859355
ex@@ 858000
me 857912
br@@ 857684
ль@@ 856021
απο 855744
bo 855729
но@@ 853552
2007 850508
ville 849204
gu@@ 846763
inter@@ 844619
ante 842979
ungs@@ 841369
н 839655
cho 838904
eines 837925
ique 836779
также 835017
si@@ 832041
ement 828065
io 827971
ts 827191
liche 826045
sp@@ 825708
x@@ 821818
cor@@ 821122
2006 820632
ien 820299
leur 819687
30 818480
bien 817915
mer@@ 816303
and 815919
или 815333
man@@ 814141
О@@ 812027
com@@ 811963
2014 810621
к@@ 808547
ри@@ 807748
2013 807451
ans 803394
serie 801510
li@@ 801310
me@@ 799866
ser@@ 799023
đau 798572
etait 798038
he@@ 797126
ra 796362
f 794541
ка@@ 791652
ente 791538
region 790184
ir 789537
2015 789261
pero 786917
cu@@ 786783
der@@ 784714
th@@ 784275
ina 781928
quan 780741
nguoi 780689
do@@ 780386
г. 778998
при 778845
με 778728
были 777504
ig@@ 777398
đa 776917
tien 776838
و 775324
album 772613
ва@@ 771878
18 771679
ке 771517
ait 770592
desde 770159
ils 768419
bau@@ 768054
mor@@ 767144
jahren 765879
lu@@ 763426
была 763290
他 762930
ersten 760046
isch 759296
h 759278
dan 758760
16 757876
во 756599
or 755846
และ 755300
v 754683
11 754301
4@@ 753010
lich 752488
т@@ 751781
etre 750779
ل@@ 750278
sen 748435
om@@ 748224
м@@ 747478
上 746208
hasta 745601
ло@@ 745145
film 745107
res 744452
den@@ 744299
lui 743813
5@@ 741548
ти@@ 740818
ven@@ 740500
antes 740384
na 738770
hoc 738734
被 737147
ise 736003
aba 735284
formula 733585
2004 733214
ш@@ 732370
general 731952
2000 731481
ere 729766
ainsi 729557
ра@@ 728623
14 728238
fer@@ 728165
было 727260
durante 726950
время 726344
r 726050
ю 725613
pen@@ 725507
fut 724927
saison 724359
aron 724018
] 723930
ci@@ 723885
ha@@ 723431
gegen 721997
ma 720553
dont 720266
ler 719964
đo 719825
ec@@ 718035
parte 717031
： 717010
voi 716528
С 715629
[ 712914
cal@@ 711560
ho@@ 710732
re 710224
а@@ 710212
alors 710126
ak@@ 709199
meme 707727
2005 707189
mai 707104
13 706813
ве@@ 706180
sin 704963
sous 704505
op@@ 702422
2016 701529
hoa 700069
donde 699080
ations 697486
6@@ 696454
ke 696019
mal@@ 695855
ana 694743
ii 694074
том 693713
25 692361
pe@@ 690826
же 690297
мо@@ 690280
lors 688785
нии 688490
sal@@ 688355
ском 687726
be 686030
jedoch 685286
x 684536
لل@@ 683339
प 682452
che 682002
р 681842
du@@ 681324
7@@ 681199
sobre 681043
nombre 679661
land@@ 679168
c' 678661
以 678100
aussi 677732
p 677083
г 677016
dis@@ 675453
ge 674442
premier 672094
17 670833
ert 670739
「 670012
」 669975
от@@ 669739
ben 669663
У@@ 669591
e-@@ 668079
teil 667749
men@@ 667555
fr@@ 667100
ма@@ 666839
си@@ 666330
land 665632
وال@@ 665490
ская 664641
ди@@ 663187
... 662839
egalement 661843
nen 660415
.@@ 659177
bal@@ 658581
раз@@ 657891
ло 657806
france 657685
И@@ 656853
ige 653745
เปน 652903
ober@@ 652091
² 651881
wahrend 651688
б@@ 651527
thanh 651122
д 650111
ж@@ 649655
ную 649030
ของ 648512
bu@@ 648508
mo 648453
ви@@ 648084
э@@ 647205
go@@ 646570
ния 645429
г@@ 645082
во@@ 644378
van 644354
premiere 643888
aciones 643529
то 642516
ier 642253
cung 641734
cre@@ 641730
9@@ 641304
paris 641079
tor@@ 640904
ins 640884
го@@ 639862
На 638543
ou@@ 638234
os@@ 637655
kon@@ 637474
etwa 637070
ни 635907
autres 635174
berg 634098
де@@ 633725
大@@ 632300
gel@@ 631716
gi@@ 630876
club 629558
ciudad 627857
nhung 627638
ren@@ 627221
8@@ 627187
aires 626617
mat@@ 625322
大 625050
bel@@ 624614
14@@ 624554
pl@@ 624224
年 623995
να 623573
mi@@ 621906
也 621481
而 620989
saint-@@ 620710
nom 620394
為@@ 620205
п@@ 619522
drei 619273
sol@@ 619230
id@@ 619214
з@@ 618500
ми@@ 618123
aire 617250
depuis 617128
ik@@ 616165
се@@ 614733
ach@@ 614383
” 612639
то@@ 610924
ва 609921
gr@@ 609684
iert 609548
spater 609310
dort 609200
“ 608726
ет 608378
tur@@ 607842
ку 607022
15@@ 606488
ских 606260
та@@ 605103
gar@@ 602021
ste 601205
των 601187
ner 599125
19 596810
л@@ 596695
nach@@ 596425
की 595152
beim 593092
pu@@ 592900
despues 592031
wieder 590320
Г@@ 589062
> 587844
tu@@ 587668
24 587124
ihre 586507
ques 585644
ant@@ 585086
ба@@ 584120
те@@ 583591
τον 582649
16@@ 582297
ม 581826
vo@@ 581555
partie 581439
mann 580412
ны 580305
thang 579350
13@@ 578916
val@@ 578541
hu@@ 578164
puis 578083
ca@@ 577404
ban 575185
2017 573930
deutschen 573683
bas@@ 573580
2001 573409
бе@@ 573019
pr@@ 572464
ton 570875
ي@@ 570589
tar@@ 570303
can@@ 569187
۔ 568193
21 568114
Э@@ 567415
П@@ 566843
gemeinde 566719
3@@ 565168
col@@ 564488
ben@@ 563810
ens 563588
av@@ 563329
ными 562750
不 562173
2002 561673
που 559238
thuc 558916
zu@@ 558723
由 557649
после 557236
х@@ 557096
ра 555969
vao 555822
му 555267
mehr 555094
seinen 554954
ков 554319
те 553000
tion 552515
igen 552389
tai 551996
seinem 551035
ees 550589
cuando 549958
100 549899
iz@@ 549460
primera 549253
ste@@ 547576
for@@ 547495
2003 547359
fin 547348
ru@@ 547139
ль 546852
ong 546545
kar@@ 546469
dr@@ 545662
a-@@ 545281
sten 544934
лся 544630
heute 544132
под 544014
ку@@ 543752
< 543000
sa@@ 542144
па@@ 542143
khoa 541825
hal@@ 541125
22 540785
По 540687
pas@@ 540609
and@@ 540313
bereits 540138
са@@ 540045
ров 538671
ion 538161
kirche 538069
ру@@ 537874
lin@@ 537801
mit@@ 537645
В@@ 536731
liegt 536645
ма 535983
dar@@ 535293
ф@@ 534056
dia 533882
trois 533004
lan@@ 532120
ch 531243
chi 530869
vi 530039
har@@ 530011
wo 529732
ons 528562
đong 528249
ла@@ 527832
及 527685
К@@ 527585
га@@ 527348
konnte 527216
ме@@ 526875
kann 526321
art 526200
! 525659
= 525009
han 524824
عام 523896
min@@ 522868
cong 522460
s-@@ 521702
ung@@ 521304
1999 520678
да@@ 520536
бо@@ 519692
sur@@ 519687
я@@ 519095
ты 517679
af@@ 517640
annees 517392
ese 516478
di 516442
len 516374
new 516303
等 515591
vers 515381
ido 515219
grand 514986
ler@@ 514376
23 513764
plusieurs 513462
entes 512511
ra@@ 512229
az@@ 511126
eg@@ 510690
0 510600
haus 510422
& 508974
為 508796
σε 508700
tre@@ 507666
peut 507384
sar@@ 506897
ing@@ 506257
por@@ 506146
е@@ 506144
erste 506001
ك@@ 505677
burg 505117
лись 504969
ми 504942
gran 504913
ть 501959
ние 501544
jusqu' 501401
ierte 500073
ром 499386
len@@ 499303
их 498918
于 498830
bu 498210
san@@ 497744
sel@@ 497352
ч@@ 496859
στην 496684
ie@@ 496634
platz 496561
1. 495827
ют 494041
t-@@ 493132
ky 493083
bor@@ 492899
де 492628
tete 492527
str@@ 492308
đoi 491967
到 491782
р@@ 491206
और 489899
groupe 489891
la@@ 489334
х 489272
н@@ 488541
26 488443
ang@@ 488156
partir 488143
straße 487565
ihm 487524
fin@@ 485327
pol@@ 485166
thu 485160
ее 484899
pal@@ 484367
50 483583
sor@@ 483310
vol@@ 483206
commune 483146
tiene 482650
و@@ 482147
ange@@ 481908
tinh 481895
28 481463
ju@@ 480615
đe 480312
khi 479684
По@@ 479276
ken@@ 479016
enden 478541
ить 478383
су@@ 478226
sub@@ 478066
cer@@ 477059
† 476728
ts@@ 476031
war@@ 475518
nes 475320
лась 475190
12@@ 474074
stand 473943
για 473792
fre@@ 473586
avant 473461
contre 473331
dann 473074
uno 472263
Д@@ 471627
ier@@ 471592
का 470758
1990 470589
ist@@ 470089
char@@ 469767
kam 469667
ino 468726
eran 468319
ed@@ 468185
asi 467863
10@@ 467623
bi 466789
rec@@ 466537
bre@@ 466478
التي 466443
alle 466161
khong 465846
bur@@ 465654
ин@@ 465494
лет 465059
kr@@ 464966
ites 464837
francais 464293
habia 464005
dung 463749
gal@@ 463527
τη 462835
名 462496
ton@@ 462292
Ко@@ 462255
sin@@ 462220
τα 462150
vat 461863
че@@ 461766
st 461615
под@@ 460913
primer 460791
ihr 460631
из@@ 460385
Ма@@ 460232
gia 459791
области 459024
στο 459017
ba@@ 458620
於 458392
Ка@@ 457838
Т@@ 457688
we@@ 457573
erte 457415
mel@@ 457160
able 457114
1998 456314
haben 456057
الم@@ 455269
Б@@ 455195
ges@@ 454953
км 454405
ngay 453620
ants 453484
ہے 453212
ba 453169
icos 453149
sau 452649
fueron 451989
vier 451908
27 450506
gen 450397
aria 450001
wal@@ 449360
ду@@ 449232
pan@@ 449137
مع 449132
fal@@ 449041
hor@@ 447589
ut@@ 447547
hi@@ 446310
где 446083
tout 445889
bl@@ 445770
ken 445576
ги@@ 445140
bau 444657
地 444531
cion 444181
tan 443712
tos 443622
gebiet 443227
spiel@@ 442244
ur 441767
кои 441583
hol@@ 441472
тов 441428
chen 441279
жи@@ 440641
او 439108
otros 438838
thuoc 438713
ف@@ 438111
40 438098
ku@@ 436914
august 436726
pi@@ 436436
dabei 435554
solo 435168
trans@@ 434803
guerre 434545
tal@@ 433219
ле 432421
си 432255
pat@@ 432056
wer@@ 431816
hin@@ 431777
ve@@ 431689
reg@@ 430882
которыи 430880
elles 430427
ot@@ 429911
jo@@ 429404
đen 429291
one 429190
ции 428708
至 428120
2@@ 427994
division 427596
об@@ 427369
一@@ 426922
gab 426821
place 426640
га 426097
dio 426041
ειναι 425927
marz 425422
tour 425105
هو 424626
januar 424357
dan@@ 424237
dor@@ 423735
nor@@ 423650
го 423407
fo@@ 422759
عن 422590
ies 422524
mu@@ 422441
thi 422299
mas@@ 422073
ah@@ 421565
w 421214
damit 421084
29 420145
ihrer 419770
estado 419276
poblacion 419249
em 419039
она 418813
grande 418446
oc@@ 418426
licher 418298
ph@@ 418176
ได 417670
tet 417573
ан@@ 417473
mal 417449
ь@@ 417082
kur@@ 416927
oktober 416921
со 416837
ется 416391
cual 416179
1945 415961
ские 415915
mes 415838
После 415411
icas 415143
пи@@ 415074
ias 414992
berlin 414934
это 414560
liste 414039
anderen 413558
ля@@ 413340
нов 413085
end 413017
if@@ 413000
rio 412320
میں 412278
schaft 411695
° 411125
ihn 411102
cas@@ 410188
пе@@ 410105
nord 409322
haupt@@ 408677
tras 408171
ev@@ 408107
sans 408057
ь 408039
ador 407878
； 407874
del@@ 407647
za 406899
phan 406582
це@@ 406373
fois 406327
1997 406322
但 406263
М@@ 405297
forma 404685
1996 404673
version 404548
вои 404399
ت@@ 403896
dessen 403828
zweiten 403810
sud@@ 403804
出 403610
ni 403371
nacional 403063
september 402729
cr@@ 402693
selon 402599
того 402492
john 402485
ing 402336
april 401788
universitat 401628
mer 400940
mismo 400823
kan@@ 400605
juni 400460
1992 400418
ost@@ 400374
ства 399995
ское 399348
ek@@ 399259
การ 398966
mort 398611
стал 398424
ue 397969
کے 397938
год 397763
οι 397266
下 395997
ки@@ 395690
之 395011
avait 394576
mag@@ 394462
juli 394040
sud 393734
mitglied 393730
ian 393493
monde 393208
1994 393203
bar 393145
чи@@ 393098
avoir 393051
ст@@ 392985
中@@ 392930
को 392737
puede 392312
durch@@ 391831
ausge@@ 391542
pa@@ 391500
york 391321
weitere 391209
deutschland 390759
neu@@ 390756
其 390407
tor 390296
ban@@ 390035
son@@ 390024
31 389877
1995 389876
более 389320
1991 389117
部 388958
tan@@ 388866
ности 388434
gibt 388028
konnen 387927
ff@@ 387728
ческои 387615
bach 387410
don@@ 387362
annee 387318
erhielt 386819
amente 386809
vez 386404
debut 385736
человек 385725
州 385598
vie 385574
ским 384535
ara 383933
一个 383877
namen 383708
ger 382816
encuentra 382657
famille 382440
dezember 382232
pays 381816
men 381634
beiden 381546
diesem 381237
ze@@ 381142
ka 381087
dorf 380509
forme 380162
hier 380109
би@@ 379660
lan 379573
neben 379467
нию 379306
является 379267
equipe 378962
met@@ 378498
xa 378426
idad 378163
ort 377667
ob@@ 377514
groß@@ 377342
1980 377247
так 377178
bat@@ 377048
pendant 376816
je 376643
bil@@ 376463
mil@@ 376013
res@@ 375705
stadt@@ 375566
lang@@ 375370
ette 375242
сти@@ 375069
ga 374980
schul@@ 374845
mun@@ 374193
lar@@ 374130
ech@@ 373880
России 373715
вер@@ 373321
gesch@@ 373264
ario 373241
ность 372507
muy 372393
ما 372219
rom@@ 372107
tom@@ 371836
ide 371272
november 371097
ше@@ 371074
notamment 370959
temps 370252
Е@@ 369466
maria 369462
1993 369305
werk 369291
كان 369257
hai 368835
familia 368125
gruppe 368080
но-@@ 367972
лось 367752
suite 367374
сто@@ 367256
olarak 366464
sab@@ 366284
wasser@@ 366251
tung 366187
ule 365998
trung 365579
ство 365490
ero 365485
Р@@ 364519
На@@ 364331
tant 364198
kal@@ 363884
lieu 363742
fe@@ 363638
ster@@ 363244
ents 363115
ля 363007
ines 362965
far@@ 362700
ы@@ 362240
ich@@ 361983
he 361666
etat 361283
ademas 361233
eren 360996
ich 360146
ي 359812
ate 359758
хо@@ 359714
ха@@ 359392
Л@@ 358435
·@@ 358289
هي 358272
ник 357981
kor@@ 357918
पर 357631
arse 357599
nord@@ 357367
gest@@ 357138
ه 356805
chinh 356059
dre@@ 355990
kom@@ 355942
ه@@ 355562
ata 355427
цы 355201
mes@@ 354944
see 354925
lon 354839
все 354679
用 354405
zunachst 354172
多 354033
cap@@ 353875
ta@@ 353635
1970 353075
zusammen 352715
ко 352583
schule 352411
ley 351938
quoc 351872
Ш@@ 351806
liga 351639
τους 351383
2018 351289
aunque 351194
jahrhundert 351176
ura 351032
plan@@ 350702
зи@@ 350479
cours 350143
fi@@ 349959
leurs 349200
stein 349110
union 348703
ene 348607
nhan 348561
य 348373
کی 348334
1989 347722
ik 347717
segun 347558
ce@@ 347421
name 347061
ay@@ 346928
пу@@ 346181
lam 345925
national 345910
non 345907
armee 345445
chung 344817
ja 344426
ida 344404
sion 344291
ure 344227
the@@ 343546
erst 343444
song 342997
0@@ 342920
ck@@ 342701
них 342580
мы 342495
所 342425
次 342424
dies 342046
与 341745
iques 341528
rat 341506
пре@@ 341431
ro 341109
deren 340994
ka@@ 340633
en-@@ 340590
tren 340443
都 340067
nieder@@ 339657
ios 339506
ini 339109
ella 339075
bes@@ 338856
bundes@@ 338838
grupo 338630
cada 338543
му@@ 338055
faire 338013
kat@@ 337865
ها 337727
autre 337550
น 337266
еи 337077
Η 336991
hel@@ 336731
sou@@ 336579
lugar 336192
municipio 335334
وت@@ 335178
eur 335047
только 334966
nhu 334835
tous 334828
ча@@ 334687
roi 334657
dec@@ 334281
super@@ 334190
cas 334175
anh 334066
рас@@ 333833
sehr 333813
det 333743
estados 333742
bang 333695
الت@@ 333361
人口 333216
ста@@ 333159
ц@@ 332839
fel@@ 332768
zuruck 332561
же@@ 331780
зо@@ 331759
sido 331755
bekannt 331628
base 331524
एक 331121
statt 331008
ke@@ 330775
noi 330727
siglo 330221
между 330181
tour@@ 329879
tat@@ 329862
кон@@ 329813
后 329634
وي@@ 329581
ai 329559
ды 329526
fest@@ 329295
mayor 329293
o-@@ 329228
nahm 329175
ح@@ 329148
titre 328942
sem@@ 328907
total 328635
familie 328558
ly 328155
februar 328108
ю@@ 327807
子 327093
ส 326908
sam@@ 326779
hay 326738
west@@ 326710
nhat 326705
go 326495
60 326482
ep@@ 326447
ши@@ 326248
hoch@@ 326214
große 325712
ras@@ 325677
wil@@ 325592
deutsche 325349
ber 325345
a. 325330
rat@@ 325267
finale 324527
sau@@ 324475
з 323704
ieren 323373
guerra 323250
За@@ 323151
contra 322867
ге@@ 322858
Не@@ 322436
состав 322081
geschichte 322078
者 321976
grund@@ 321949
mac@@ 321797
ем 321776
ones 321641
與@@ 321574
0,@@ 321221
斯 321210
junto 321169
nha 321115
位 321112
situe 321074
ihren 320806
na@@ 320778
tel@@ 320576
ком 320529
成 320259
ast@@ 319984
Се@@ 319981
ion@@ 319974
encore 319865
ebenfalls 319839
Са@@ 319291
ческого 319277
города 319040
aient 318799
zen 318732
пол@@ 318598
che@@ 318331
cher 318169
ческих 318163
rer 318141
中国 317994
gem@@ 317891
غ@@ 317690
steht 317400
которые 317065
家 316901
cro@@ 316749
equipo 316614
wegen 316585
ista 316072
Ф@@ 316050
keine 315793
sohn 315785
1960 315762
1988 315677
fu@@ 315522
band 315400
var@@ 315342
denen 314917
ell@@ 314862
teur 314387
don 314255
西@@ 314094
ice 314083
200 313964
1944 313956
sil@@ 313404
Το 313378
peu 313333
ingen 313221
cel@@ 313160
Со@@ 313136
任 313065
trat 312771
todo 312511
न 312492
partido 311825
ire 311823
вал 311810
lai 311714
tiempo 311696
ages 311602
гу@@ 311568
ita 311242
ds 311117
seite 310940
Х@@ 310910
вых 310910
devient 310771
og@@ 310577
ника 310122
bao 309623
pon@@ 309617
tro 309575
nueva 309526
cat@@ 309358
was 309353
gre@@ 309212
بين 309012
rang 308849
dieses 308822
vil@@ 308508
ية 308473
最 307851
ников 307829
befindet 307107
wa 306930
lie@@ 306856
mittel@@ 306590
gener@@ 306463
dien 306161
paul 305972
ki@@ 305758
eau 305658
bajo 305133
ين 305038
ciones 305017
ic 304995
fil@@ 304908
nouveau 304621
aban 304384
като 303918
quatre 303820
ze 303594
bro@@ 303469
schon 303293
بعد 303184
li 303078
final 303071
q@@ 302678
ду 302655
pel@@ 302063
СССР 302039
不@@ 301629
je@@ 301389
ре 300842
през 300811
allem 300575
اور 300555
воины 300265
ен@@ 300264
ления 300110
les@@ 300054
ner@@ 300035
ات 299958
soit 299881
moi 299767
quien 299693
zeit@@ 299639
Ο 299551
cin@@ 299545
ille 299434
international 299315
Н@@ 299068
+ 299045
begann 299040
ры 298895
usa 298794
ker@@ 298787
1-@@ 298766
adores 298657
1986 298656
ver 298446
ern@@ 297997
mientras 297838
b. 297836
iste 297800
bereich 297569
lang 297527
1987 297508
eglise 297355
flo@@ 297354
lat@@ 296950
後 296842
市 296767
этого 296537
nachdem 296325
lon@@ 295780
stein@@ 295748
let@@ 295691
bon@@ 295535
qua 295422
zen@@ 295405
pe 295241
einige 294963
otras 294743
departement 294597
ig 294313
unidos 294288
lange 294083
они 293968
are 293964
lam@@ 293778
1975 293433
斯@@ 293383
cur@@ 293220
бу@@ 293136
nee 293126
berg@@ 293106
wor@@ 292920
與 292791
скую 292658
form 292577
ologie 292484
neuen 292419
hien 291884
ца 291568
cam@@ 291304
этом 291287
реки 291100
lau@@ 291050
wo@@ 290943
worden 290900
iii 290667
| 290430
新 290328
nuevo 290241
د@@ 290218
landes@@ 290161
fen@@ 289923
lig@@ 289829
hacia 289726
ри 289667
use 289564
tal 289436
1985 289412
all@@ 289378
А. 289373
teil@@ 289370
universidad 289353
thoi 289281
gor@@ 289052
village 289042
eurs 289031
ร 288753
或 288688
ска 288590
ать 288516
會@@ 288400
cu 288341
ту@@ 288303
него 288140
ann@@ 287926
vo 287885
großen 287790
ub@@ 287765
gobierno 287488
1984 287451
fun@@ 287392
id 287339
embargo 287151
medi@@ 286995
около 286955
bzw. 286866
leben 286700
? 286622
ди 286550
ging 285907
car 285857
francaise 285850
mis 285839
rich@@ 285839
neue 285748
eux 285718
ram@@ 285631
неи 285621
alen 285461
oper@@ 285142
pere 285017
long 284759
deutscher 284673
bol@@ 284627
principal 284573
situee 284533
ша@@ 284497
dam@@ 284339
lit@@ 284273
1941 284044
norte 283864
сти 283780
kunst@@ 283622
им 283542
jean 283386
isme 283335
indi@@ 283058
sh@@ 282896
jose 282798
ito 282728
selbst 282637
ων 282428
ierten 282399
d-@@ 282101
ран@@ 281928
enen 281802
бы@@ 281758
ج@@ 281665
व 281578
feld 281473
ye 281242
cia 281236
500 281143
titel 280977
1@@ 280918
вать 280732
anderem 280642
juan 280309
espana 280282
bat 279923
kol@@ 279630
mol@@ 279561
estos 279551
chu 278995
quelques 278991
al-@@ 278905
centre 278759
histoire 278534
ти 278470
todos 278337
ление 278331
er-@@ 278203
لا 278128
spiel 277886
ن@@ 277637
personen 277598
zer@@ 277530
45 277518
کا 277457
spielte 277288
80 277241
cou@@ 277205
natur@@ 277173
anti@@ 276864
ش@@ 276741
theo 276681
donc 276535
han@@ 276209
1972 276078
ному 276033
fils 275917
ance 275754
раиона 275733
德@@ 275599
durant 275506
1982 275393
ki 275161
ac 275129
gebaude 275113
Про@@ 275107
ме 274885
вает 274756
ti 274522
chien 273936
性 273894
عدد 273665
grandes 273650
1950 273494
pais 273493
США 273448
moins 273311
م@@ 273156
三 273134
лов 273102
els 272913
vien 272846
前 272370
can 272223
siendo 272132
tab@@ 272129
fuhrte 271916
ohne 271861
erung 271828
К 271736
idae 271443
цию 271355
mat 271129
бы 271073
Ми@@ 270856
ili@@ 270804
schloss 270770
بن 270704
ento 270536
ηταν 270210
fon@@ 270191
nuoc 270119
1983 270076
alt@@ 270069
اس 270001
rey 269983
лу@@ 269949
vu 269839
erin 269781
bet@@ 269537
2-@@ 269112
gehorte 269094
truong 269033
時 268862
克@@ 268802
дов 268789
ismo 268670
historia 268642
35 268238
las@@ 267984
reich@@ 267940
reste 267882
ierung 267724
个 267659
ст 267523
numero 267423
star@@ 267370
1974 267369
90 267063
via 266700
estaba 266686
мен@@ 266655
ска@@ 266591
ach 266493
лом 266476
erstmals 266351
allerdings 265944
1943 265847
gol@@ 265846
1979 265769
cour@@ 265699
пред@@ 265648
dur@@ 265513
1968 265225
nat@@ 264887
vida 264637
fer 264623
就 264333
ak 264088
iles 263924
luego 263907
gewann 263893
هذه 263812
生 263776
europa 263757
heim 263628
При@@ 263609
immer 263572
1940 263441
70 263422
politique 263380
wen@@ 263376
Ба@@ 263332
personas 263234
1976 263205
hohe 263103
Ли@@ 263085
ются 263044
против 262951
zo@@ 262780
Ле@@ 262722
Бо@@ 262659
ป 262472
1978 262448
годах 262414
1973 262347
etats-unis 262261
nouvelle 262208
iv 261848
1981 261669
tanto 261603
bri@@ 261582
lar 261468
الح@@ 261433
fas@@ 261358
trouve 261350
ches 261033
jo 260919
ως 260634
ges 260538
bou@@ 260426
fa@@ 260359
ona 260291
ellen 260242
此 260199
Ку@@ 260086
ры@@ 260071
louis 259813
luc 259727
fc 259710
cet 259628
nun 259455
ع@@ 259250
bezeichnet 259075
дом 259000
ت 258991
ly@@ 258902
ар@@ 258789
fe 258745
ang 258500
ide@@ 258362
составе 258302
loi 258110
ment 258069
ea 258000
ay 257951
الذي 257931
algunos 257930
Де@@ 257928
ция 257924
拉@@ 257852
trag@@ 257690
fort 257670
vit@@ 257625
части 257625
uso 257583
idos 257370
form@@ 257278
viet 257259
sera 257162
区 257070
cen@@ 257067
thuong 257032
1939 256880
io@@ 256785
part 256715
wenn 256624
公@@ 256377
道 256274
spielen 256244
因 256136
ran@@ 256113
可以 255893
ni@@ 255883
行 255768
曾 255660
tard 255590
нием 255456
并 255396
cha 255368
bus@@ 255203
國@@ 254767
olan 254722
рии 254636
стве 254560
ard 254468
thong 254408
كانت 254368
außerdem 254231
segunda 254145
uc@@ 254072
2. 253868
โดย 253837
фи@@ 253830
enten 253797
त 253737
her 253702
區 253652
ane 253499
ق@@ 253379
ad 253337
фа@@ 253252
unternehmen 253079
ья 253038
мая 253018
martin 252975
kas@@ 252404
hatten 252325
phat 252279
icin 252098
j 252093
5-@@ 252038
esa 251982
ums 251572
hoi 251531
ateur 251418
hen 251347
新@@ 251328
tem@@ 251281
mis@@ 250997
inc@@ 250957
hen@@ 250830
19. 250822
lage 250778
fach@@ 250750
nationale 250716
ien@@ 250661
1942 250561
charles 250491
ster 250395
南@@ 250127
ز@@ 249862
grab@@ 249770
robert 249535
стра@@ 249458
Ре@@ 249357
3-@@ 249270
Ра@@ 249163
1977 249123
vis@@ 248872
леи 248562
mad@@ 248488
jahrhunderts 248484
universite 248440
王 248332
ια 248326
amt 248261
ги 248223
ensemble 248102
aufgrund 248081
人@@ 248066
pierre 248025
ensuite 247928
еще 247893
ama 247820
сте@@ 247763
sta 247658
mieu 247388
mus@@ 247191
ligne 247175
kt 247152
вые 247078
1971 247024
ческии 246996
liber@@ 246914
4-@@ 246839
山 246677
Он 246430
pin@@ 246383
лен 246304
da@@ 246292
ат@@ 246209
向 246199
br 246131
fahr@@ 246001
presente 245960
funf 245916
lag@@ 245775
tions 245765
prix 245541
eta 245472
gehort 245440
الع@@ 245356
eres 245338
1969 245271
wieder@@ 245082
hang 244983
einge@@ 244975
arbeitete 244919
verein 244798
Ро@@ 244612
dom@@ 244580
santa 244523
特@@ 244459
consider@@ 244398
mar 244299
iv@@ 244147
heit 244089
danach 244031
importante 243936
hon 243866
ну@@ 243805
ски 243784
жа@@ 243632
bahn 243532
0-@@ 243519
som@@ 243376
когда 243342
nhieu 243322
1967 243302
đinh 243274
которых 243091
З@@ 243034
ники 242927
mars 242856
作 242580
лю@@ 242565
tig 242544
сы 242526
debido 242514
andere 242493
sei 242392
julio 242259
societe 242155
habitantes 242109
гра@@ 241997
prim@@ 241923
tuvo 241700
its 241412
尔@@ 241309
ain 241235
ит@@ 241228
bre 241103
م 241095
站 241094
encia 240972
tri 240972
gan@@ 240956
nomme 240922
ط@@ 240798
рен@@ 240719
ß@@ 240688
trabajo 240671
canh 240667
tenia 240476
film@@ 240452
два 240419
ares 240314
жен@@ 240239
population 240075
plan 240066
б 240005
tuong 239960
gesellschaft 239928
fand 239897
че 239861
epoque 239845
cm 239663
end@@ 239662
tas 239662
ης 239661
ecole 239571
rap@@ 239567
воз@@ 239293
Я@@ 239245
Та@@ 239220
территории 239213
ell 239206
Бе@@ 239154
цев 239027
rad@@ 238876
isches 238870
县 238739
pres 238660
wohn@@ 238608
ın 238399
اي@@ 238333
Ар@@ 238279
fall 238190
sat@@ 237898
بي@@ 237804
вая 237795
ου 237783
ก 237732
dar 237429
mundo 237387
stelle 237373
Си@@ 237265
ture 237068
lis@@ 237046
iger 236968
ip@@ 236872
日本 236856
1930 236786
viele 236759
Су@@ 236674
if 236617
contr@@ 236540
ту 236523
ena 236365
meister 236112
1965 235966
分 235939
ками 235938
фе@@ 235936
32 235841
17@@ 235696
1964 235464
ان@@ 235448
chen@@ 235426
pri@@ 235415
esto 235414
سے 235340
ος 235243
的@@ 235206
уже 235070
วา 234922
kun@@ 234867
ruck@@ 234776
park 234736
temporada 234711
ص@@ 234701
cul@@ 234686
dernier 234594
mur@@ 234549
tigen 234353
Ч@@ 234296
س@@ 234184
centro 234028
στη 234027
sondern 233982
Мо@@ 233907
peter 233786
ck 233778
face 233694
eo 233661
ora 233652
هذا 233527
meter 233331
juin 233177
lad@@ 233155
1.@@ 233136
porte 233114
ман@@ 232986
ali@@ 232975
над 232892
auto@@ 232891
iens 232840
zwe@@ 232804
000 232797
ef@@ 232790
stre@@ 232760
会 232367
sitz 232321
parti 232320
etant 232303
bin@@ 232233
st. 232107
recht 232041
山@@ 231999
all 231910
exist@@ 231888
чтобы 231850
lehr@@ 231836
cote 231801
حيث 231775
dazu 231748
dou@@ 231670
1938 231663
systeme 231641
tel 231575
1966 231345
Го@@ 231341
i-@@ 231326
ци@@ 231240
hand@@ 231113
lim@@ 231072
льнои 230897
раионе 230886
welt@@ 230866
flu@@ 230855
τις 230843
central 230664
leg@@ 230656
tique 230589
cependant 230477
ok@@ 230446
1920 230310
musik@@ 230236
post@@ 230198
mayo 230143
stat@@ 230031
зна@@ 229998
时 229940
第一 229874
arios 229862
لي@@ 229812
adi@@ 229679
於@@ 229580
real 229545
1946 229409
ря@@ 229251
festival 229142
tran 229140
hy@@ 229117
sim@@ 228881
الس@@ 228860
neu 228848
法 228841
tag@@ 228761
presidente 228667
bul@@ 228607
並@@ 228607
provincia 228540
insgesamt 228481
高@@ 228193
1,@@ 228096
ga@@ 228057
ables 227989
cao 227921
ft 227846
deuxieme 227779
1963 227703
ayant 227626
ор@@ 227616
pap@@ 227559
тои 227469
almente 227403
donne 227262
cab@@ 227239
mehrere 227189
入 227131
etaient 227067
tre 227025
ке@@ 226983
ار@@ 226923
特 226879
1962 226789
несколько 226776
които 226746
seines 226620
tar 226616
ty@@ 226590
ker 226526
isch-@@ 226514
c. 226509
teurs 226460
ната 226407
dat@@ 226318
mc@@ 226298
varios 226228
entonces 226212
лы 226129
ا 226053
cuenta 225905
свои 225874
ises 225873
vel@@ 225835
века 225754
david 225748
ron@@ 225705
hil@@ 225508
вого 225315
rund 225209
friedrich 225133
ческие 225041
hanh 225000
weiteren 224953
會 224826
comp@@ 224711
Га@@ 224634
мира 224593
وم@@ 224506
president 224467
65 224415
blo@@ 224415
тан@@ 224254
Ю@@ 224236
chaque 224194
ос@@ 224156
i. 224135
pres@@ 224121
passe 224034
μια 224005
point 223919
ps 223875
yer 223735
可 223656
person@@ 223585
homme 223568
В. 223524
через 223339
iten 223154
pp@@ 222572
nombreux 222500
tran@@ 222440
п 222340
香港 222340
kre@@ 222318
rech@@ 222311
estas 222188
chez 222170
ام@@ 222094
europe 221998
力 221963
win@@ 221955
nar@@ 221920
zusammen@@ 221902
fac@@ 221861
spieler 221800
vier@@ 221611
television 221581
द 221581
weg 221571
ев 221478
eu@@ 221296
fle@@ 221231
tag 221209
haus@@ 220962
diesen 220957
cher@@ 220932
1948 220927
bay 220903
село 220897
folge 220825
nis 220691
خ@@ 220633
gro@@ 220621
能 220583
isch@@ 220525
cuatro 220406
environ 220405
годы 220331
th 220329
service 220217
sig@@ 220183
dol@@ 220173
1956 220088
graf@@ 220067
zudem 219850
1933 219816
2.@@ 219798
mannschaft 219643
которои 219491
menschen 219405
celle 219313
fen 219196
الق@@ 219186
ско@@ 219160
ham@@ 219062
января 219049
bac 218827
година 218808
wol@@ 218803
ня@@ 218783
1958 218723
ذلك 218692
acht 218645
nis@@ 218630
eron 218619
место 218585
mexico 218580
minh 218158
origine 218058
Па@@ 217959
декабря 217937
dro@@ 217929
besteht 217909
ae 217728
1918 217648
1961 217616
лен@@ 217552
Ме@@ 217344
iones 217130
8-@@ 217019
安@@ 216961
hum@@ 216958
eng@@ 216945
periode 216885
вания 216846
wel@@ 216806
kilometer 216763
kommen 216749
site 216653
sel 216652
กบ 216418
爾@@ 216344
ancien 216313
stellen 216308
часть 216276
banda 216267
6-@@ 216207
afin 216183
vater 216116
получил 216012
dit 215906
33 215895
richtung 215866
高 215785
ath@@ 215686
buch 215531
tin 215512
cio 215425
stellung 215324
ree 215308
ence 215200
гор@@ 215158
system 215134
net 215124
eros 215072
海@@ 215058
र 214898
schließlich 214839
septembre 214804
burger@@ 214557
que@@ 214392
多@@ 214297
rock 214272
lien 214261
pho 214201
v. 214198
america 214135
阿@@ 214100
чер@@ 214089
tay 214033
ib@@ 213861
stan@@ 213840
studierte 213827
johann 213778
yo@@ 213773
binh 213661
nahe 213432
сов 213413
может 213378
後@@ 213374
gouvernement 213204
letzten 213144
ες 213130
pf@@ 213110
الج@@ 213109
ون 213077
3. 212906
fuhrt 212834
otro 212818
genannt 212817
德 212709
casa 212693
iers 212664
radio 212602
في@@ 212583
米 212534
上@@ 212503
จะ 212326
sistema 212200
ihrem 212074
juillet 212054
yılında 211996
my 211899
полу@@ 211896
lich@@ 211870
fri@@ 211816
1936 211804
cree 211799
dun@@ 211773
克 211762
nu@@ 211655
ье 211634
августа 211538
stellt 211518
tin@@ 211503
entr@@ 211438
din@@ 211311
До@@ 211291
льныи 211270
июля 211255
ة 211198
inst@@ 211046
один 211041
1959 210993
ба 210818
geben 210813
ux 210795
y-@@ 210769
sto@@ 210712
№ 210690
mois 210638
rum@@ 210577
kel@@ 210462
ему 210447
compte 210446
ats 210400
khac 210395
ato 210279
phap 210155
chef 210147
cht 210051
sha@@ 209999
cy@@ 209900
вали 209876
使用 209846
frau 209838
eu 209603
enta 209547
position 209515
gegen@@ 209490
orden 209401
weiter 209270
чи 209212
z. 209100
天@@ 208920
ima 208910
mm 208757
ис@@ 208751
michael 208728
sollte 208678
radi@@ 208648
сентября 208578
certains 208575
路 208532
ха 208495
Мар@@ 208405
которая 208368
時@@ 208307
viec 208263
ट 208255
населения 208209
habitants 208183
75 208147
سنة 207952
ris@@ 207869
dev@@ 207859
đat 207764
将 207754
gut 207728
roman 207716
enne 207608
agua 207390
ko 207362
souvent 207235
octubre 207185
ros 207171
своеи 207166
2,@@ 207113
ationen 207108
tee 207044
ц 206969
pil@@ 206954
zona 206946
observ@@ 206864
stellte 206832
raum 206769
jour 206759
permet 206748
pueden 206700
per 206626
تم 206609
folgenden 206584
公司 206581
dir 206490
cho@@ 206326
марта 206312
面 206306
对 206292
up@@ 206282
чем 206069
mann@@ 206050
mut@@ 205984
aj@@ 205947
سي@@ 205841
已 205832
ais 205701
tod 205645
werke 205628
октября 205594
ed 205570
obra 205534
ري@@ 205445
espece 205436
1957 205380
amiento 205228
300 205185
其中 205159
pelicula 205151
20. 205068
hom@@ 205046
septiembre 204993
janvier 204980
kin@@ 204794
isation 204775
us-@@ 204766
1949 204758
อ 204666
ью 204625
tam@@ 204552
met 204522
ر@@ 204366
ouest 204240
июня 204196
octobre 204111
وا@@ 204096
eten 203931
ira 203897
futbol 203838
of@@ 203718
$ 203712
thomas 203699
marzo 203613
分@@ 203508
化 203508
ством 203424
aine 203410
1947 203400
加@@ 203323
гла@@ 203301
fir@@ 203191
anfang 203174
wan@@ 203060
enero 203032
finanz@@ 202968
betrieb 202960
ск@@ 202897
ot 202884
urs 202775
video 202742
Ц@@ 202649
xe 202617
ните 202600
دي@@ 202578
ником 202347
ш 202335
64 202296
хи@@ 202277
以及 202274
madrid 202204
vir@@ 202201
1954 202199
junio 202005
ements 201888
尔 201759
аль@@ 201725
других 201678
政府 201669
ซง 201637
m. 201628
對@@ 201527
joseph 201367
北@@ 201285
三@@ 201229
巴@@ 201228
1952 201225
cau 201221
الك@@ 201217
gegrundet 201031
net@@ 200822
36 200775
tak@@ 200747
illa 200729
кар@@ 200651
ello 200604
國 200519
jeu 200390
station 200341
За 200301
soll 200293
kreis 200177
cant@@ 200056
平方公里 199996
represent@@ 199985
toi 199981
niveau 199928
1937 199841
blieb 199838
Ха@@ 199765
сло@@ 199576
grace 199553
كما 199452
od@@ 199371
ж 199359
pa 199116
comte 199094
giao 199079
organ@@ 199060
През 199024
wahl@@ 198995
joue 198976
sang 198955
ty 198898
lab@@ 198851
18. 198840
度 198746
abge@@ 198726
هم 198656
จาก 198642
huyen 198637
celui 198630
апреля 198548
university 198475
水@@ 198400
затем 198222
Ве@@ 198221
arch@@ 198189
ellos 198054
ust@@ 198051
группы 198044
лин@@ 198041
lor@@ 198021
championnat 197984
william 197876
34 197801
phong 197796
eme 197698
hr@@ 197645
ford 197581
地@@ 197519
出@@ 197414
dig@@ 197364
cinq 197274
又 197243
football 197076
abril 196948
paso 196907
起 196864
karl 196841
1955 196778
coupe 196738
ag 196721
agosto 196505
mitte 196497
Ва@@ 196491
sy@@ 196490
ao 196465
zug 196464
diciembre 196439
decembre 196400
especie 196397
gleich@@ 196354
او@@ 196152
tive 196148
aout 196137
участие 196078
rue 196046
fol@@ 196006
得 196002
ى 195912
7-@@ 195708
лет@@ 195692
rag@@ 195633
unos 195595
action 195385
ius 195352
lagen 195344
0.@@ 195335
1919 195310
tri@@ 195240
cap 195217
ч 195120
inger 195108
aten 195099
giai 195034
conseil 194979
tro@@ 194930
ues 194921
u-@@ 194840
mundial 194777
burger 194745
avril 194733
wobei 194636
enti@@ 194631
ut 194561
省 194539
rem@@ 194172
ста 194172
wur@@ 194135
вы 194068
sup@@ 193958
bus 193910
edad 193881
erst@@ 193786
主@@ 193770
termin@@ 193746
doch 193694
这 193664
sit@@ 193598
tatig 193520
日 193434
1953 193397
bes 193394
ci 193369
teile 193304
organisation 193274
ιας 193255
speci@@ 193221
erfolgte 193203
present@@ 193116
定 193111
利@@ 193035
Ж@@ 193008
organis@@ 192991
aufge@@ 192977
находится 192893
regierung 192879
sac@@ 192856
jur@@ 192846
tong 192757
jou@@ 192741
ให 192694
autor@@ 192689
existe 192634
нов@@ 192606
arbeiten 192578
нее 192515
три 192514
小 192451
вместе 192441
alter 192352
caso 192325
tochter 192304
arbeit 192250
ol 192191
使 192159
alten 192036
cad@@ 191877
linie 191861
ther@@ 191791
вым 191789
ai@@ 191726
стро@@ 191723
有@@ 191668
При 191589
rest@@ 191416
之@@ 191398
第@@ 191359
اب@@ 191336
viol@@ 191185
appar@@ 191182
里@@ 191174
wach@@ 191143
ov@@ 191108
segundo 191033
glo@@ 190994
жение 190943
prom@@ 190942
doit 190911
james 190850
get@@ 190792
Ла@@ 190747
allen 190690
род@@ 190664
20@@ 190663
frag@@ 190611
hof 190529
38 190425
поло@@ 190381
нения 190199
Ки@@ 190172
tern 190143
ations@@ 190139
phu 189950
remporte 189878
科 189835
dent 189811
ros@@ 189751
toujours 189739
ров@@ 189694
musste 189675
文@@ 189575
weise 189573
رو@@ 189561
inas 189467
α 189463
inos 189435
anz@@ 189364
bt 189311
hizo 189236
kl@@ 189147
tiert 189126
име@@ 189117
行@@ 189114
рия 189046
小@@ 189014
gang 188989
match 188774
ур@@ 188648
chateau 188522
1934 188387
domin@@ 188380
однако 188360
ден@@ 188300
noviembre 188228
обще@@ 188154
censo 188124
team 188055
đai 187997
phai 187987
ще@@ 187944
Однако 187888
主要 187867
وقد 187752
ноября 187738
ium 187723
ore 187721
ках 187624
vin@@ 187530
tige 187514
marie 187410
nen@@ 187366
wasser 187264
ενα 187123
communes 187010
ski 186955
defen@@ 186930
etes 186896
вается 186796
hui 186780
ließ 186706
de-@@ 186617
es-@@ 186568
americain 186550
spiele 186548
tipo 186523
sinh 186517
dentro 186475
مت@@ 186341
Кар@@ 186335
качестве 186319
estan 186244
ordre 186181
包括 186173
welt 186112
membre 186095
gue 185996
novembre 185978
staaten 185966
schw@@ 185953
zuruck@@ 185892
poco 185844
partei 185825
ющии 185797
1935 185788
erten 185666
vari@@ 185654
د 185649
participe 185632
長 185631
city 185613
sechs 185576
3,@@ 185568
finden 185508
poly@@ 185448
nah@@ 185425
pet@@ 185397
اس@@ 185352
seconde 185303
城 185301
lap 185300
скому 185059
Бу@@ 184991
traves 184978
world 184882
48 184840
corps 184823
ве 184802
carlos 184763
cancion 184711
college 184695
sum@@ 184638
effet 184473
которого 184395
жения 184390
στις 184389
قبل 184269
4. 184217
air 183982
س 183971
for 183959
itat 183854
association 183824
раион 183791
tarde 183788
лу 183744
wald 183739
利 183723
parmi 183718
zone 183718
insbesondere 183717
entwicklung 183658
"@@ 183648
krieg 183607
ves 183543
без 183540
prend 183512
konig 183432
kurz 183371
zog 183357
tieu 183295
ua 183144
luong 183088
carriere 183044
endo 183032
flor@@ 183025
toutes 182982
ไป 182884
gemeinden 182874
dre 182823
ους 182814
ب 182793
rolle 182792
tam 182728
среди 182712
ud@@ 182664
yo 182657
tion@@ 182517
canada 182465
gan 182428
ак@@ 182385
sport@@ 182364
她 182179
vung 182135
wechselte 182094
42 182081
всех 182064
пер@@ 181986
u. 181864
tarafından 181827
oro 181811
обра@@ 181784
科@@ 181767
integr@@ 181706
staats@@ 181685
stor@@ 181474
西 181367
tes@@ 181352
город 181274
francisco 181273
الف@@ 181255
anschließend 181194
van@@ 181173
rein@@ 181116
откры@@ 180960
льного 180930
卡@@ 180924
февраля 180909
1929 180887
首 180822
ham 180746
soci@@ 180674
volks@@ 180527
otra 180509
1951 180475
15. 180471
พ.ศ. 180464
inde 180460
ск 180422
ایک 180409
membres 180360
ят 180332
sis 180250
george 180201
сом 180180
đao 180145
wa@@ 180143
kultur@@ 180102
museum 180041
ف 180033
Ру@@ 180004
ele@@ 180000
einwohner 179990
sand@@ 179973
geo@@ 179940
ienne 179907
jung@@ 179843
kommt 179787
法@@ 179678
الب@@ 179665
muchos 179606
konnten 179605
habit@@ 179572
составляет 179546
Пе@@ 179522
haber 179490
bio@@ 179391
ك 179160
toute 179151
dias 179128
dic@@ 179125
national@@ 179108
lag 179105
кан@@ 179084
conocido 179068
里 179031
than 178992
meist 178974
role 178879
centr@@ 178866
musik 178852
boi 178830
welche 178660
exemple 178621
musica 178521
本@@ 178507
kreuz@@ 178485
ει 178457
南 178437
رة 178398
тре@@ 178341
И. 178227
maison 178214
городе 178204
нем 178173
gewahlt 178128
位於 178110
事 178093
ivo 178086
ih@@ 178057
ces@@ 178011
wilhelm 177985
文 177981
jeweils 177947
sonra 177921
Ви@@ 177884
tierra 177827
馬@@ 177801
largo 177800
route 177754
То@@ 177694
fast 177573
kle@@ 177516
etudes 177438
ubernahm 177289
इस 177272
christ@@ 177241
utilise 177224
日@@ 177210
mont@@ 177141
dido 177130
ase 177110
schafts@@ 177087
fuhrung 177039
erreichte 177033
zi@@ 176968
publico 176957
commence 176813
مي@@ 176812
internacional 176768
estadounidense 176671
zuge 176666
hop 176598
اد@@ 176565
iglesia 176509
argentina 176488
siege 176436
金@@ 176381
400 176355
arten 176345
期 176298
espanol 176236
febrero 176125
44 176118
ling 176093
bour@@ 175952
desarrollo 175950
premiers 175940
льных 175897
ним 175799
布@@ 175688
lem@@ 175644
projet 175609
им@@ 175537
enz 175483
medio 175454
alis@@ 175446
Да@@ 175421
ق 175393
ικη 175305
lebens@@ 175300
wit@@ 175258
нами 175218
publie 175176
ком@@ 175128
Лу@@ 175121
erhalten 174992
له 174962
лич@@ 174849
capital 174839
tho 174747
nam@@ 174700
tham 174695
aujourd' 174679
institut 174633
thay 174601
пла@@ 174566
sho@@ 174529
生@@ 174518
estudio 174397
verwendet 174383
55 174363
16. 174245
1914 174217
etc. 174211
troisieme 174145
外@@ 174008
وفي 173980
ez 173908
rac@@ 173906
更 173865
किया 173863
ß 173845
kap@@ 173742
tra@@ 173704
oft 173684
aje 173672
agu@@ 173586
nin 173564
gast@@ 173555
اء 173554
pour@@ 173550
название 173495
setzte 173469
نسمة 173393
армии 173371
17. 173361
lauf@@ 173291
colon@@ 173286
кии 173285
52 173282
двух 173254
1928 173225
off@@ 173115
italien 173093
37 173088
9-@@ 172986
ven 172943
الش@@ 172931
til@@ 172919
ями 172842
pro 172820
три@@ 172759
fs 172754
construction 172672
bild@@ 172660
الن@@ 172616
kriegs@@ 172615
d. 172579
mark 172570
ล 172496
puesto 172487
свою 172340
voir 172332
ron 172331
ms 172324
siguiente 172303
s. 172273
pul@@ 172234
fl@@ 172225
league 172155
1932 172127
quer@@ 172087
39 172057
зе@@ 171988
emp@@ 171979
天 171921
эн@@ 171781
東@@ 171731
but 171724
ellement 171708
peuvent 171622
работал 171579
strecke 171484
быть 171456
себя 171453
1917 171452
innerhalb 171427
prozent 171383
وب@@ 171359
darauf 171330
начале 171324
realise 171291
inten@@ 171263
pes@@ 171222
gio 171141
jours 171020
separ@@ 170991
ilk 170843
У 170826
fran@@ 170815
tra 170760
Те@@ 170722
выи 170704
этои 170683
長@@ 170639
сть 170628
данным 170618
alter@@ 170577
ل 170574
tienen 170482
там 170480
sag@@ 170453
ال 170451
长 170389
œuvre 170386
циеи 170378
antonio 170267
ble@@ 170258
ض@@ 170258
heim@@ 170220
aqu@@ 170212
territoire 170201
числе 170108
frente 170106
siehe 170084
đoan 170040
oz@@ 169919
個@@ 169804
gang@@ 169794
rit@@ 169792
klasse 169728
flache 169700
edi@@ 169639
richard 169632
records 169627
principales 169579
тра@@ 169479
red 169476
jeux 169465
ится 169456
sk@@ 169420
norden 169393
kam@@ 169273
bruder 169258
khu 169248
arbeit@@ 169220
cer 169214
by 169195
ал@@ 169160
zentrum 169097
nguyen 169006
heinrich 168935
پر 168921
voll@@ 168898
والم@@ 168721
есть 168628
idi@@ 168545
dienst 168531
jeune 168490
port 168429
球 168415
hinh 168210
my@@ 168162
rol@@ 168036
па 167970
ول@@ 167942
4,@@ 167745
carrera 167580
direc@@ 167566
hijo 167544
cuoc 167540
времени 167451
chuyen 167395
verschiedenen 167370
ment@@ 167362
poste 167224
mi 167172
beginn 167168
ван@@ 167161
мом 167153
type 167143
ث@@ 167097
droit 167012
ions 166921
ер@@ 166920
قد 166903
mejor 166871
47 166862
1924 166806
вра@@ 166752
lac@@ 166669
式 166632
autor 166625
enz@@ 166612
حتى 166544
zer 166525
x-@@ 166459
aceae 166441
flug@@ 166370
Во@@ 166351
eb@@ 166331
z-@@ 166290
entstand 166284
вод@@ 166266
bir@@ 166259
fevrier 166206
hon@@ 166194
можно 166132
ге 166122
lin 166087
internationale 166079
rechts@@ 166037
uf@@ 166013
besonders 165962
deja 165948
ال@@ 165936
щ@@ 165906
nit@@ 165903
mul@@ 165901
luis 165865
gas@@ 165749
kinder 165736
明 165734
phia 165690
beide 165687
japon 165670
cit@@ 165610
nie 165537
hace 165343
всего 165338
tich 165276
ور@@ 165142
много 165128
ı 165111
зу@@ 164995
media 164931
rahmen 164834
ته 164806
вала 164695
klein@@ 164684
ях 164679
musique 164596
林 164591
mir@@ 164578
5. 164411
production 164405
alo@@ 164347
两 164341
besch@@ 164290
province 164264
ii. 164210
vertrag 164194
epoca 164153
бер@@ 164138
bestand 164044
algunas 164030
amb@@ 163998
varias 163992
жизни 163968
selben 163959
pic@@ 163916
bit@@ 163807
拉 163783
muerte 163742
军 163731
бра@@ 163675
folgender 163597
chan@@ 163562
spor@@ 163429
มา 163350
ere@@ 163348
1931 163315
superficie 163296
app@@ 163285
था 163274
gilt 163241
plat@@ 163197
social 163136
lac 163124
xx 163106
six 163064
гре@@ 163054
рами 163045
main 163012
obras 162964
кра@@ 162950
.. 162944
своего 162939
ais@@ 162836
ностью 162828
hausen 162824
connu 162786
иского 162552
46 162540
1926 162509
下@@ 162444
diger 162436
局 162248
recht@@ 162197
он@@ 162171
eter 162133
davon 162102
cach 162090
भी 162059
villa 161995
ικο 161971
вом 161879
werk@@ 161861
tang 161837
nombreuses 161792
kul@@ 161665
pueblo 161654
re-@@ 161641
arte 161604
Ан@@ 161588
graphie 161530
格@@ 161467
sul@@ 161465
sprache 161456
ks 161381
軍@@ 161264
istes 161233
defin@@ 161204
σ@@ 161200
41 161114
xix 161107
wien 161095
bon 161092
communaute 161083
china 160995
ade 160923
prote@@ 160842
6. 160840
чнои 160840
代 160836
aller 160805
стала 160784
ls 160738
sous-@@ 160690
lassen 160680
fur@@ 160632
formation 160619
munchen 160582
型 160547
wahl 160517
đem 160480
1925 160449
erschien 160384
nung 160354
المتحدة 160310
sehen 160308
ides 160284
padre 160245
poder 160096
вание 160077
decide 160012
它 159986
ani 159859
zt 159796
ah 159725
also 159642
buch@@ 159625
О 159611
weil 159595
xuat 159467
eno 159374
尼@@ 159354
daher 159246
om 159223
lado 159197
ن 159196
amp@@ 159177
damals 159164
gir@@ 159134
ek 159057
ade@@ 158977
искои 158957
mente 158956
grun@@ 158914
οτι 158914
points 158908
comenzo 158907
mondiale 158882
период 158854
errichtet 158839
14. 158797
河 158796
kirchen@@ 158788
13. 158763
Σ@@ 158740
ala 158705
daha 158642
теле@@ 158636
человека 158621
gran@@ 158570
вич 158497
该 158477
43 158433
1922 158432
村 158395
1927 158368
đang 158342
public 158301
發 158228
cerca 158144
ei 158079
الخ@@ 158048
stark 158004
同 157996
مو@@ 157977
годов 157909
einsatz 157899
الص@@ 157848
เมอ 157841
preis 157801
titulo 157792
mise 157752
suden 157714
學@@ 157637
tt@@ 157601
量 157568
biet 157536
điem 157483
localidad 157460
osten 157412
方 157395
ун@@ 157392
enfants 157242
раз 157211
mau@@ 157208
tener 157136
ر 157128
momento 157114
прав@@ 157022
कर 156968
sol 156959
dal@@ 156933
Это 156909
succes 156902
這@@ 156848
hommes 156838
اي 156788
тер@@ 156778
ismus 156640
1921 156639
classe 156637
ков@@ 156615
льные 156602
leich@@ 156489
nom@@ 156458
ejercito 156434
genero 156428
ologia 156424
travail 156424
zweite 156424
خلال 156424
erneut 156413
1923 156387
sk 156313
ole 156294
kauf@@ 156255
ander@@ 156189
lee 156077
国 156071
ug@@ 156038
στον 156003
ix 155990
自@@ 155985
stad@@ 155938
bru@@ 155895
लिए 155856
frankreich 155854
esp@@ 155832
М. 155814
ниях 155802
zahl 155753
ric@@ 155693
rau@@ 155617
provinz 155606
мои 155578
ici@@ 155551
kn@@ 155476
alite 155469
Ди@@ 155469
apar@@ 155379
gam@@ 155360
号 155319
本 155315
personnes 155301
schlag@@ 155301
date 155283
gon@@ 155147
canton 155137
自 155088
formes 155083
francois 155056
slo@@ 155024
конце 154950
ро 154839
nos 154783
Вы@@ 154768
ny 154730
00 154723
чных 154586
finales 154566
ender 154556
terre 154540
كل 154539
元 154473
iter 154459
стов 154449
ющих 154369
misma 154356
seul 154333
يا 154326
constitu@@ 154232
bourg 154218
c-@@ 154170
种 154137
jean-@@ 154108
vic@@ 154098
zel@@ 154076
fort@@ 154029
ları 153945
chua 153883
theatre 153859
hans 153854
А 153817
ван 153740
bezirk 153729
truoc 153714
copa 153700
royal 153692
wagen 153665
ailleurs 153664
imiento 153586
red@@ 153578
ele 153560
londres 153546
物 153453
eingesetzt 153442
furent 153412
beispiel 153381
part@@ 153347
имеет 153306
stell@@ 153181
1912 153108
trinh 153031
пло@@ 153019
jen@@ 152994
eller 152970
全@@ 152953
liegen 152939
uch@@ 152908
actualmente 152836
gioi 152826
من@@ 152806
mand@@ 152751
ultimo 152689
force 152675
座 152658
eth@@ 152620
56 152603
Ри@@ 152570
libre 152542
schle@@ 152538
海 152536
b-@@ 152515
nas@@ 152476
ша 152441
saint 152437
台 152420
ز 152394
bevolkerung 152314
frequ@@ 152280
weltkrieg 152251
millionen 152248
mont 152222
regi@@ 152204
пар@@ 152169
軍 152162
12. 152130
original 152089
род 152087
condado 152045
london 152027
rapport 151974
95 151839
шеи 151831
ща@@ 151811
republique 151791
ets 151679
landes 151642
dant 151542
jahres 151467
histor@@ 151463
1900 151460
termino 151453
است@@ 151420
ثم 151355
sowohl 151324
has@@ 151313
q 151311
istas 151309
бор@@ 151300
cela 151298
8. 151286
лы@@ 151284
bahnhof 151259
zahlreiche 151257
外 151248
spr@@ 151233
只 151203
Му@@ 151195
отде@@ 151177
weit 151164
eaux 151160
ola 151132
republica 151052
menos 151050
要 151039
金 150959
手 150933
rencontre 150911
importantes 150908
zug@@ 150784
andose 150771
linea 150751
वर 150735
iken 150708
films 150689
iki 150682
sort 150649
professor 150567
anglais 150323
gestellt 150297
ences 150296
атель@@ 150259
су 150207
rel@@ 150185
ick@@ 150127
isla 150119
同@@ 150100
eigenen 150093
chem@@ 150034
alli@@ 150020
nang 150008
campeonato 150007
bert 149977
истории 149856
findet 149850
schaften 149825
二 149825
gun@@ 149808
cup 149789
子@@ 149785
вшии 149773
dest@@ 149760
mach@@ 149726
pay@@ 149548
ny@@ 149546
kamp@@ 149513
лан@@ 149487
ket 149439
وهو 149394
вен@@ 149361
тах 149360
lerin 149347
85 149311
ez@@ 149300
ri 149268
berger 149258
diente 149256
kurz@@ 149147
ار 149134
ensis 149121
diri@@ 149083
hn@@ 149071
periodo 149039
ation@@ 149028
тем 148980
ses@@ 148936
zehn 148875
depen@@ 148843
juego 148831
غير 148815
posteriormente 148798
работы 148769
joueur 148685
petit 148667
制 148600
tun@@ 148571
сы@@ 148534
यह 148515
anim@@ 148484
gues 148459
пра@@ 148448
пле@@ 148424
anischen 148412
uz@@ 148406
dil@@ 148375
schutz@@ 148373
bag@@ 148317
кие 148293
edition 148253
мер@@ 148220
чего 148088
osterreich 148087
bank 148071
58 148030
Ни@@ 148027
sach@@ 147978
мов 147957
franzosischen 147932
escuela 147917
чно 147759
todas 147741
reich 147738
لم 147711
тами 147704
mission 147687
grund 147660
62 147568
тия 147544
四 147528
1910 147488
director 147447
costa 147360
7. 147323
名@@ 147266
Во 147190
gegenuber 147005
cl@@ 146962
conserv@@ 146959
其他 146954
pouvoir 146876
этот 146868
hecho 146863
εν@@ 146860
Но@@ 146843
blu@@ 146823
chau 146805
Также 146763
creation 146727
folgte 146708
stehen 146678
या 146668
area 146653
hem@@ 146560
ших 146560
ح 146556
nın 146531
halten 146506
لو@@ 146504
posit@@ 146503
heil@@ 146499
гу 146498
fille 146481
darunter 146464
tieng 146387
將@@ 146383
encias 146362
mayoria 146359
фо@@ 146349
ด 146219
ey@@ 146180
dern 146115
gemeinsam 146089
verein@@ 146006
m-@@ 145991
distrito 145960
got@@ 145943
авто@@ 145925
leri 145923
leitung 145892
single 145880
starb 145745
حسب 145693
may 145614
gut@@ 145573
bun@@ 145526
первыи 145508
entre@@ 145413
tus 145406
diferentes 145368
developpement 145362
ila 145341
49 145248
revolution 145203
genommen 145116
fallen 145084
bai 144978
стар@@ 144966
vas@@ 144955
世界 144951
tier@@ 144938
landkreis 144911
نسبة 144818
programa 144742
18@@ 144741
ι 144696
обо@@ 144696
po 144683
第二 144640
agit 144622
westen 144617
din 144614
στα 144589
學 144461
chuc 144448
canal 144441
9. 144431
osa 144419
religi@@ 144419
clo@@ 144417
fern@@ 144335
kh@@ 144292
llamado 144269
成@@ 144258
bom@@ 144241
ин 144215
sions 144168
produccion 144143
Пер@@ 144140
19@@ 144024
gas 144006
đieu 144003
ون@@ 143981
parti@@ 143958
亦 143925
ден 143884
isten 143857
style 143843
ф 143737
из-за 143721
reihe 143694
hinter@@ 143642
schrieb 143639
mitglieder 143625
ecrit 143623
laquelle 143622
schutz 143601
· 143598
мы@@ 143594
亞@@ 143551
femme 143540
quement 143537
平@@ 143522
sport 143462
фор@@ 143367
เขา 143346
деревня 143333
ersch@@ 143307
zo 143256
lung 143247
cast@@ 143246
ieron 143209
波@@ 143208
grenze 143204
一個@@ 143121
ств 143084
ман 143080
ческая 143079
อย 143076
principale 143064
prasident 143053
leon 143039
54 142980
1913 142868
αν@@ 142842
ев@@ 142836
geht 142818
имени 142785
erz@@ 142734
trat@@ 142719
該@@ 142698
mutter 142646
chile 142574
pad@@ 142548
gri@@ 142527
heutigen 142522
李 142422
уче@@ 142413
51 142342
ande 142299
縣 142276
地区 142267
insel 142231
p-@@ 142230
安 142229
ubicado 142218
това 142138
manera 142126
realis@@ 142102
связи 142079
bois 141992
medaille 141938
线 141931
eti@@ 141917
рин@@ 141916
57 141904
raison 141892
63 141886
δεν 141833
west 141831
士 141827
militar 141802
mus 141757
einzel@@ 141642
bs 141628
bung 141589
hes@@ 141506
3.@@ 141452
53 141447
Кон@@ 141442
sam 141333
hoang 141256
مثل 141249
tic@@ 141218
hotel 141208
ру 141198
firma 141178
satz 141166
lorsque 141112
И 141108
tit@@ 141075
anas 141044
ful@@ 141043
continu@@ 141010
fahrt 140995
nivel 140994
schwer@@ 140940
wir@@ 140893
cambio 140891
ores 140886
5,@@ 140879
ви 140818
estudios 140805
ству 140768
gebaut 140701
gruppen 140653
sich@@ 140653
finalmente 140642
burg@@ 140622
ικα 140478
来 140472
اع@@ 140435
две 140377
院 140346
ehemaligen 140331
devant 140327
cent@@ 140325
ff 140284
karriere 140283
fro@@ 140279
beispielsweise 140117
verschiedene 140116
determin@@ 140036
kreis@@ 140022
جو 140021
livre 140016
tent@@ 139954
Ду@@ 139931
county 139910
來@@ 139903
kamen 139883
器 139871
производ@@ 139840
quand 139835
ache 139777
feh@@ 139715
前@@ 139678
لة 139637
buenos 139624
ع 139582
10. 139575
mark@@ 139547
eff@@ 139489
чен@@ 139487
zuvor 139416
ca. 139413
muss 139379
انه 139371
actu@@ 139370
second 139363
ير 139316
jugend@@ 139250
leiter 139237
jacques 139231
ministre 139187
дер@@ 139186
Гу@@ 139174
construccion 139132
mere 139083
sun@@ 139068
ница 139066
paises 139056
Ту@@ 139046
pom@@ 139029
orts@@ 139016
hin 139003
bad 138977
victoria 138943
danh 138924
f-@@ 138857
quant 138788
chi@@ 138738
kirch@@ 138675
镇 138648
beaucoup 138639
alto 138622
chin@@ 138615
primeros 138547
angeles 138494
ниями 138486
tele@@ 138472
cali@@ 138462
Пи@@ 138444
82 138418
music 138367
tsch@@ 138343
線 138277
發@@ 138211
86 138197
tap 138164
ali 138129
metros 138117
ilen 138055
eis@@ 138043
水 138005
1905 138002
tol@@ 137987
大学 137986
образом 137974
allemagne 137971
ateurs 137962
schiff 137932
об 137926
habe 137904
съ@@ 137841
francia 137791
imo 137731
ام 137715
bild 137701
гов 137689
idas 137676
美国 137643
refer@@ 137640
ey 137630
cargo 137625
ja@@ 137611
gom 137592
Население 137576
原@@ 137568
tir@@ 137557
aun 137544
musical 137527
deci@@ 137514
бро@@ 137506
оста@@ 137506
ator@@ 137477
الر@@ 137466
hung 137392
sprach@@ 137386
Пре@@ 137378
fic@@ 137366
11. 137228
verband 137180
высо@@ 137168
vio 137131
tao 137127
gul@@ 137106
dach@@ 137035
uk@@ 137026
кры@@ 136976
derniere 136973
即 136952
cum@@ 136939
ejemplo 136903
مة 136886
кор@@ 136867
ple@@ 136841
лишь 136829
Н. 136812
74 136782
ex 136724
ela 136671
schie@@ 136664
рои 136625
program@@ 136616
charge 136610
تح@@ 136604
шии 136535
isa 136519
คอ 136507
sex@@ 136485
ды@@ 136441
призна@@ 136428
quin@@ 136392
стали 136333
пор@@ 136316
once 136223
神@@ 136139
machte 136130
onen 136114
戰@@ 136082
второи 136057
sak@@ 135967
frei@@ 135952
وس@@ 135952
重@@ 135883
studium 135864
hof@@ 135821
ange 135771
pur@@ 135681
zahlen 135681
reino 135540
年@@ 135530
从 135518
нение 135480
đay 135434
yan@@ 135414
ika 135407
punto 135386
Хо@@ 135376
ющие 135360
ancienne 135324
بر@@ 135212
manuel 135207
identi@@ 135138
比 135108
daruber 135088
center 135062
لا@@ 135031
fus@@ 135006
кре@@ 135006
wander@@ 134972
ยง 134952
terme 134937
собои 134897
frauen 134895
тся 134894
vent@@ 134893
ча 134883
爾 134879
72 134833
marque 134818
24@@ 134810
如 134787
series 134766
toda 134746
تش@@ 134724
zin@@ 134673
итель@@ 134640
шен@@ 134562
day 134556
ursprunglich 134541
thai 134520
ison 134495
ите 134417
ingles 134414
individu@@ 134407
chan 134402
alidad 134389
экономи@@ 134389
field 134310
cinco 134309
leit@@ 134291
другие 134291
bach@@ 134238
luft@@ 134185
gian 134170
bildet 134126
pedro 134078
vient 134074
universit@@ 134052
эк@@ 134009
illes 133997
posicion 133993
68 133988
haut 133979
скими 133968
arts 133934
عة 133923
7,@@ 133873
reichs@@ 133807
cuales 133795
apo@@ 133794
somit 133733
stur@@ 133730
ain@@ 133725
direction 133673
tas@@ 133605
entos 133549
stieg 133460
ين@@ 133416
tac 133393
има 133381
politica 133345
tragen 133333
tau 133298
hir@@ 133286
tiep 133277
zwar 133270
лении 133229
financi@@ 133207
北 133116
ov 133103
своих 133097
sing@@ 133087
ates 132974
uni@@ 132956
public@@ 132898
ł@@ 132879
經@@ 132876
compagnie 132861
general@@ 132854
h. 132850
iker 132849
erie 132834
Для 132818
ys 132746
ye@@ 132741
juegos 132699
demi-@@ 132637
bataille 132612
teilweise 132603
建 132568
加 132554
tau@@ 132551
feld@@ 132494
parfois 132493
Đai 132483
port@@ 132458
دي 132430
Аль@@ 132418
veces 132370
compose 132341
folgende 132297
tionen 132275
enes 132270
runde 132254
franz 132249
150 132187
tradition@@ 132156
star 132098
pac@@ 132095
73 132077
compar@@ 132062
sieben 132039
лов@@ 132007
93 132004
grundete 131973
чныи 131966
1000 131890
lers 131866
reun@@ 131836
goi 131769
genre 131757
bedeutung 131748
87 131694
bahn@@ 131687
aur@@ 131636
原 131632
ня 131616
ско-@@ 131605
Его 131574
Ге@@ 131516
veroffentlicht 131505
sch 131496
искии 131480
集 131441
опреде@@ 131438
стан@@ 131401
jar@@ 131397
сла@@ 131361
zw@@ 131353
вид 131340
motor 131339
cau@@ 131311
local 131269
industri@@ 131237
بة 131227
jan@@ 131225
ходе 131219
gemein@@ 131194
начала 131185
mak@@ 131173
gab@@ 131171
straßen@@ 131164
格 131094
militar@@ 131093
promo@@ 131085
retour 131058
ست@@ 131044
mac 131043
milieu 130993
หรอ 130955
部分 130943
ايضا 130901
bos@@ 130893
очень 130850
produit 130849
точ@@ 130844
тен@@ 130792
От@@ 130784
自己 130666
ngoai 130622
washington 130605
zah@@ 130573
hacer 130560
普@@ 130538
wirtschafts@@ 130537
quyen 130514
cic@@ 130498
trang 130475
tv 130449
kir@@ 130441
家@@ 130439
ита 130395
однои 130395
school 130345
absol@@ 130337
bezeichnung 130324
gesetzt 130317
riviere 130306
相@@ 130303
Ке@@ 130271
resi@@ 130209
casi 130165
origin@@ 130147
6,@@ 130083
ry@@ 130071
ains 130058
moglich 130027
ures 130008
льно 130008
neten 129990
tir 129967
зем@@ 129934
С. 129933
travaux 129932
schen 129875
llego 129837
christian 129812
gleichen 129784
vie@@ 129750
bildung 129711
l-@@ 129643
合@@ 129641
innen@@ 129640
компании 129562
官 129531
đia 129525
quali@@ 129503
tlich 129493
gehoren 129459
результате 129457
це 129431
تر@@ 129429
ати@@ 129425
ικης 129422
duong 129383
马@@ 129325
ord@@ 129311
84 129306
1915 129288
美國 129288
aines 129286
zeigt 129286
99 129242
sieg@@ 129236
quartier 129194
1911 129193
actual 129180
98 129061
iendo 129047
handelt 128968
лия 128927
elimin@@ 128908
واقع 128876
بلغ 128874
xi@@ 128848
fuhren 128845
Украины 128835
neben@@ 128826
ligue 128815
krit@@ 128779
個 128752
lasst 128664
ям 128622
setzung 128621
haufig 128580
котором 128558
conven@@ 128552
кру@@ 128537
court 128461
Ор@@ 128447
лии 128438
عشر 128414
وق@@ 128399
produc@@ 128388
sus@@ 128357
77 128302
edit@@ 128234
rot@@ 128198
ซ 128194
чу@@ 128183
inclu@@ 128182
位于 128182
76 128128
estacion 128110
empire 128054
millones 128039
96 128025
tras@@ 128017
gie 128005
цен@@ 128004
vet@@ 128001
iere 127983
71 127906
stuck 127837
81 127832
phe 127807
اما 127787
中心 127781
對 127756
buom 127741
61 127705
94 127699
jer@@ 127606
jan 127589
shi@@ 127508
kinh 127491
pesar 127491
mp@@ 127469
termine 127450
东@@ 127381
elektr@@ 127371
ต 127333
by@@ 127318
льная 127305
liches 127244
transpor@@ 127242
場 127202
內@@ 127156
premio 127106
cualquier 127036
kleinen 127032
seulement 127006
600 127000
out 126981
ем@@ 126937
بعض 126886
wehr@@ 126872
municipal 126870
образ@@ 126760
stes 126719
став@@ 126707
gericht 126655
maß@@ 126655
α@@ 126615
cos 126568
tier 126545
und@@ 126530
proyecto 126527
rou@@ 126487
nov@@ 126483
arbeits@@ 126477
recon@@ 126468
desp@@ 126439
bra 126406
พระ 126378
produktion 126376
qui@@ 126353
iz 126349
verkehr 126295
体 126277
pos@@ 126241
conocida 126231
arri@@ 126218
вают 126191
встре@@ 126135
來 126101
66 126082
meisten 126062
роль 126041
段 126034
жа 125996
開@@ 125960
dus 125950
派 125923
bay@@ 125868
aster@@ 125862
huong 125858
journal 125812
partidos 125809
在@@ 125801
iser 125798
dich@@ 125797
تي@@ 125789
verwaltungs@@ 125782
libro 125724
sommer 125692
одним 125669
zy@@ 125660
ската 125654
عبد 125645
muc 125640
след 125610
tum@@ 125595
ات@@ 125594
動@@ 125588
theater 125565
рах 125497
blan@@ 125485
立 125484
国@@ 125481
الان@@ 125477
ато@@ 125414
lu 125405
ap 125395
geboren 125391
1908 125368
sea 125350
idades 125341
88 125333
ут@@ 125319
marche 125292
iva 125285
тро@@ 125276
halb@@ 125229
ihnen 125209
ign@@ 125150
you 125145
ья@@ 125115
ну 125110
其@@ 125104
fron@@ 125055
stam@@ 125043
Ло@@ 125016
bas 125006
punkt 124990
чен 124930
нах 124912
сельского 124894
descen@@ 124891
kleine 124866
recherche 124866
korper@@ 124835
вар@@ 124665
переписи 124662
字 124656
abord 124632
iche 124617
đuong 124565
مدينة 124547
保@@ 124504
тии 124486
78 124468
تحت 124395
чного 124367
ग 124365
很 124364
30. 124328
ari@@ 124273
ania 124272
指 124247
ход@@ 124246
вое 124242
einander 124208
कि 124187
bis@@ 124162
cadre 124160
aer@@ 124158
щен@@ 124126
गया 124119
tores 124096
正@@ 124065
american 124020
Ти@@ 124020
miembros 123970
ular 123955
sav@@ 123924
toan 123899
стре@@ 123896
besuchte 123865
اب 123864
popular 123840
，@@ 123839
eto 123835
frere 123831
atique 123793
fuhrer 123782
сты 123684
oides 123667
течение 123634
arbeitet 123585
αλλα 123581
dee 123573
đi 123571
siguientes 123553
ких 123553
способ@@ 123537
certaines 123510
disco 123508
夫 123487
星 123455
民 123431
اف@@ 123385
fahren 123351
campo 123343
itz 123312
italie 123309
Đo 123300
elev@@ 123282
體 123247
تعداد 123239
mang 123190
elu 123170
xi 123167
zar@@ 123162
являются 123130
女 123104
69 123096
內 123081
militaire 123062
estim@@ 123045
59 123039
αν 123027
ющеи 123016
ambos 123013
ins@@ 123006
district 122956
georg 122946
flus@@ 122939
Но 122929
lev@@ 122926
ито@@ 122925
motor@@ 122919
habian 122917
отме@@ 122857
invest@@ 122843
situation 122776
mouvement 122764
dien@@ 122743
世 122686
наи@@ 122650
sec@@ 122649
民@@ 122616
scene 122614
alte 122607
aide 122603
phuong 122569
eria 122562
gn@@ 122513
oblig@@ 122506
區@@ 122483
nt 122464
carl 122453
illo 122401
назначен 122395
on-@@ 122378
rab@@ 122378
capit@@ 122372
grav@@ 122361
grundung 122312
sein@@ 122261
理 122213
nic@@ 122181
фон 122120
minister 122115
sky 122115
партии 122105
internationalen 122102
wirk@@ 122086
hoac 122082
espanola 122071
signe 122036
ват 122035
adop@@ 122006
equ@@ 122002
sion@@ 122000
surtout 121981
四@@ 121968
истори@@ 121964
cai 121898
kab@@ 121851
langen 121850
verbindung 121797
97 121785
dreh@@ 121764
our 121756
deten 121728
например 121647
чески 121631
arias 121611
dafur 121584
боль@@ 121582
内 121576
را@@ 121558
1907 121539
font 121532
nahmen 121518
comite 121500
کو 121489
نے 121484
الد@@ 121479
multi@@ 121440
ера 121424
cd 121397
mam@@ 121396
гг. 121382
ann 121362
chanson 121360
คน 121352
selbst@@ 121326
92 121317
duc 121285
Đong 121233
stri@@ 121232
house 121228
ιο 121224
وكان 121188
trieu 121171
اد 121167
美@@ 121163
le-@@ 121156
1916 121144
alan 121113
taus@@ 121079
67 121077
besitz 121071
finalement 121006
teatro 120996
свя@@ 120993
ßen 120977
henri 120971
staat@@ 120952
二@@ 120947
當@@ 120921
ator 120898
थ 120873
级 120863
Οι 120862
день 120841
lic@@ 120838
igt 120833
we 120828
mediante 120815
ehe 120811
dienst@@ 120804
let 120760
especies 120753
ss 120730
gesamt@@ 120717
stand@@ 120715
marine 120700
ني@@ 120692
auß@@ 120687
ekt 120677
91 120659
malgre 120658
oeste 120654
ใช 120626
tim 120577
ط 120563
само@@ 120553
fernseh@@ 120540
сен@@ 120536
gare 120464
sept 120457
erster 120452
color 120447
79 120424
tif 120410
weiter@@ 120410
1906 120321
محمد 120321
Α@@ 120285
ген@@ 120283
musee 120276
дан@@ 120271
departamento 120237
12月 120220
gil@@ 120213
schwe@@ 120203
кто@@ 120192
aya 120174
представ@@ 120157
albert 120142
ng@@ 120081
Россиискои 120075
وج@@ 120045
exito 120008
etwas 120002
particulier 119991
ذ@@ 119984
даже 119974
hohen 119972
月 119934
шие 119911
reseau 119910
directeur 119861
แต 119837
theorie 119827
schaf@@ 119821
нен@@ 119817
21. 119787
produ@@ 119748
mon 119730
zogen 119710
將 119647
convirtio 119639
kloster 119626
бере@@ 119609
material 119600
hombres 119579
организации 119579
regul@@ 119564
jun@@ 119537
german@@ 119536
страны 119525
versch@@ 119515
chron@@ 119514
verwaltung 119498
gelang 119480
ο@@ 119475
林@@ 119465
族 119428
因此 119421
اكثر 119405
tis@@ 119400
可能 119391
verfahren 119345
ebenso 119319
mujeres 119312
oph@@ 119310
entaire 119294
alrededor 119276
шения 119271
cause 119269
вин@@ 119251
ян@@ 119229
Ша@@ 119228
hinaus 119180
25. 119143
ener@@ 119130
事@@ 119119
esper@@ 119106
Би@@ 119100
henry 119097
aliz@@ 119052
色 119051
fis@@ 119046
графи@@ 119021
cok 118968
mem@@ 118959
مع@@ 118942
a.@@ 118872
fonde 118853
turm 118834
ett 118821
工作 118808
800 118800
190@@ 118796
центр 118786
羅@@ 118786
acuerdo 118762
yen 118761
macht 118757
sens 118749
رية 118744
demande 118676
進 118623
ausbildung 118622
Ин@@ 118607
letzte 118597
posee 118590
тор@@ 118587
00@@ 118565
brau@@ 118551
gemeinde@@ 118536
今 118534
befinden 118494
eigene 118486
сон 118448
8,@@ 118440
мест@@ 118414
ziel 118404
daniel 118401
sper@@ 118393
sung 118386
cus 118372
сил 118364
caracter@@ 118308
grands 118301
吉@@ 118288
副 118236
origen 118230
anne 118217
bac@@ 118199
иться 118166
densidad 118141
الط@@ 118110
ental 118101
interpre@@ 118091
ats@@ 118079
وهي 118058
g-@@ 118045
lichkeit 117992
objet 117967
ense 117963
khoang 117885
holz@@ 117865
bischof 117859
metal 117834
мар@@ 117811
puntos 117791
politiker 117768
brucke 117741
voit 117738
Лю@@ 117734
ι@@ 117689
standen 117681
hau 117665
euro 117658
te-@@ 117647
евич 117643
мор@@ 117635
nes@@ 117590
以@@ 117587
allemand 117576
way 117534
sta@@ 117524
genutzt 117519
cir@@ 117508
micro@@ 117497
ludwig 117396
ute 117394
schweiz 117361
tum 117347
Дже@@ 117332
up 117312
industrie 117304
britannique 117300
жении 117292
michel 117274
哈@@ 117261
dieron 117253
明@@ 117241
icion 117236
miembro 117220
obtient 117213
kein 117188
ort@@ 117172
differents 117113
низ@@ 117105
tandis 117090
поселения 117076
tritt 117050
ور 117018
古@@ 116995
j. 116960
研究 116930
ци 116922
ras 116894
89 116847
engag@@ 116841
elections 116834
към 116834
80@@ 116738
र@@ 116738
ค.ศ. 116734
мя@@ 116726
programme 116723
gi 116718
lauf 116716
比@@ 116684
sorti 116673
การ@@ 116660
kapit@@ 116628
autour 116559
город@@ 116553
millions 116544
haup@@ 116526
اني 116508
ουν 116504
дет@@ 116501
ceux 116489
之一 116479
уч@@ 116467
interes@@ 116376
bruch 116368
profes@@ 116323
top 116295
annonce 116263
alli 116239
alle@@ 116157
смерти 116130
stil 116122
astero@@ 116085
moment 116072
internet 116071
prepar@@ 116067
称 116067
08 116026
eigen@@ 115976
ву@@ 115971
redu@@ 115960
petite 115957
estilo 115950
vardır 115932
mau 115922
americaine 115896
weiterhin 115884
переда@@ 115869
außen@@ 115822
el-@@ 115815
ав@@ 115808
zweit@@ 115804
教@@ 115754
anna 115744
seur 115698
область 115682
с-@@ 115639
ici 115591
кли@@ 115571
equipes 115558
rus@@ 115537
gehen 115530
test@@ 115498
可@@ 115480
aurait 115466
nhien 115464
сер@@ 115455
gram@@ 115442
tis 115420
много@@ 115408
polit@@ 115388
limit@@ 115349
ган@@ 115345
quer 115333
parc 115300
dad 115285
decada 115267
кая 115265
вую 115255
auteur 115245
hang@@ 115221
5.@@ 115198
lec@@ 115189
platz@@ 115175
vereinigten 115148
direkt 115137
вет@@ 115127
cion@@ 115118
wald@@ 115096
數 115078
兩@@ 115066
isee 115058
ht 115047
bron@@ 115034
Бер@@ 115032
nav@@ 114968
đanh 114956
دة 114946
жи 114914
1909 114880
restaur@@ 114872
cken 114870
phil@@ 114868
vue 114865
zeichen 114861
rennen 114860
fuera 114834
ami 114827
einigen 114793
lav@@ 114790
tig@@ 114783
ческое 114767
清@@ 114767
nu 114729
line 114580
otto 114579
rhein@@ 114573
eln 114562
لها 114562
совет@@ 114530
offen@@ 114528
entstanden 114452
音 114437
кам 114430
tage 114407
civil 114406
والت@@ 114392
gene 114389
halt 114359
hauser 114355
1904 114352
nho 114328
няя 114319
onia 114302
trau@@ 114283
schrift 114251
dadurch 114219
част@@ 114200
pir@@ 114189
gano 114143
рабо@@ 114125
тя@@ 114118
過@@ 114114
bald 114097
tur 114092
начал 114079
quebec 114044
anlage 113997
округа 113993
называ@@ 113966
hamburg 113958
01 113948
compania 113943
нос@@ 113893
tels 113883
strom@@ 113857
kinder@@ 113850
victoire 113826
ким 113813
23@@ 113794
нении 113790
enn@@ 113789
تها 113772
fili@@ 113763
× 113760
фильм 113750
зы 113725
اك@@ 113705
лены 113680
beau@@ 113669
ไม 113625
нова 113618
phim 113617
無@@ 113612
cine 113590
show 113584
заклю@@ 113505
Ν@@ 113488
nem@@ 113464
reci@@ 113439
тив@@ 113421
機 113421
weis@@ 113416
obwohl 113406
Ста@@ 113388
bad@@ 113365
jor@@ 113343
maler 113332
adora 113246
ειχε 113242
winter@@ 113227
lus@@ 113226
max 113223
studi@@ 113221
puerto 113218
esse 113204
enter@@ 113195
syn@@ 113176
вели@@ 113123
ren 113122
гру@@ 113070
по-@@ 113061
hoy 113044
نة 113030
oso 113013
relat@@ 112978
cabo 112945
Ал@@ 112940
الغ@@ 112931
米@@ 112919
рав@@ 112911
4.@@ 112902
proto@@ 112896
kg 112747
/@@ 112737
seg@@ 112724
車 112715
influ@@ 112710
orte 112706
ry 112698
اح@@ 112669
estuvo 112617
icamente 112603
ज 112584
united 112579
deutlich 112540
9月 112521
مح@@ 112494
ules 112488
stamm@@ 112458
erreicht 112435
ula 112388
schriften 112372
анти@@ 112268
προ@@ 112264
фа 112251
kunst 112249
barcelona 112239
enten@@ 112224
不同 112204
incluso 112201
geist@@ 112188
tex@@ 112141
four@@ 112113
тин@@ 112110
techn@@ 112109
particip@@ 112100
могут 112099
ative 112090
目 112071
eri 112033
diver@@ 112031
vielen 112023
tura 111998
hieu 111988
appele 111983
εχει 111956
rund@@ 111913
oficial 111854
eur@@ 111811
пис@@ 111770
plupart 111767
22. 111746
presi@@ 111704
phase 111694
sudlich 111688
geschafts@@ 111636
tierte 111616
pag@@ 111597
femmes 111578
dy@@ 111552
станции 111527
lie 111516
nehmen 111513
维@@ 111503
suivante 111480
hielt 111468
ड 111468
diplom@@ 111464
log@@ 111453
visit@@ 111438
05 111410
кино@@ 111392
мат@@ 111330
собствен@@ 111329
issent 111327
سكانها 111319
лег@@ 111314
seule 111303
ouv@@ 111290
перед 111271
δια@@ 111249
ehren@@ 111248
اق@@ 111211
langue 111201
studio 111201
ure@@ 111176
Чер@@ 111169
betr@@ 111155
hinter 111138
льное 111133
sech@@ 111132
sao 111109
美 111079
посе@@ 111076
fonction 111065
रप 111045
الولايات 111015
halle 111002
7月 110991
ial 110988
正 110986
rin@@ 110958
nutz@@ 110918
igkeit 110904
herrschaft 110884
車@@ 110881
dritten 110825
servicio 110739
especi@@ 110738
kehrte 110731
teten 110712
ске 110692
ج 110689
ften 110652
nie@@ 110553
национа@@ 110546
ari 110538
ologique 110513
полити@@ 110508
kung 110501
разде@@ 110496
ois 110473
epouse 110462
wissenschaften 110455
pit@@ 110419
сме@@ 110418
场 110393
Из@@ 110384
au-@@ 110375
pren@@ 110365
los@@ 110362
wiesen 110352
seria 110295
sozi@@ 110253
adap@@ 110250
號 110249
extre@@ 110238
тру@@ 110238
чные 110227
aufgenommen 110181
sozial@@ 110173
8月 110163
weisen 110144
sieg 110106
жил 110094
accion 110067
才 110054
khoi 110044
premieres 110042
amen@@ 110008
ret@@ 110000
monte 109984
ното 109981
suivant 109907
formen 109903
plac@@ 109897
去 109878
10月 109870
定@@ 109830
jac@@ 109800
gee 109796
uses 109778
所@@ 109772
hohen@@ 109770
semble 109731
tranh 109723
сле@@ 109657
成立 109640
enfin 109609
out@@ 109597
cam 109563
fuhr@@ 109551
wes@@ 109531
авиа@@ 109520
et-@@ 109501
gau@@ 109478
toutefois 109475
akademie 109470
kel 109465
соб@@ 109461
ei@@ 109448
созда@@ 109446
operation 109438
вои@@ 109415
تق@@ 109396
iler 109387
dr. 109368
nees 109352
n-@@ 109342
сни@@ 109342
bot@@ 109320
weit@@ 109309
retrouve 109303
sent 109303
24. 109226
bah@@ 109201
ита@@ 109171
pier@@ 109153
principalement 109140
gleichzeitig 109137
gold@@ 109119
光 109115
vest@@ 109076
ου@@ 109059
28. 109056
gs 109022
学 109018
grenz@@ 109012
sees 109007
lista 108985
hockey 108977
瓦@@ 108969
لي 108915
cent 108911
этих 108896
encuentran 108895
torneo 108884
κατα 108879
gibi 108869
dete 108860
europaischen 108821
ultima 108799
druck@@ 108797
коро@@ 108779
tat 108774
aca 108764
83 108756
जो 108702
evangel@@ 108677
mien 108663
batalla 108651
代表 108642
muchas 108623
gefuhrt 108617
esi 108604
cha@@ 108588
iges 108588
Фи@@ 108580
celebr@@ 108561
fan@@ 108542
time 108510
frances 108494
veroffentlichte 108483
льным 108479
Đuc 108455
nation@@ 108453
fluss 108452
ivos 108448
sicht 108441
begriff 108415
zeiten 108368
aga 108365
front 108363
cil@@ 108335
рода 108307
著 108305
territorio 108249
команды 108236
почти 108235
ιου 108229
instrum@@ 108227
вя@@ 108226
石 108222
gh@@ 108216
berliner 108208
buyuk 108126
jamais 108116
будет 108067
кро@@ 108050
nordlich 108049
первои 108019
domaine 108009
feder@@ 108003
konig@@ 107997
عاما 107990
santiago 107959
системы 107932
中國 107930
Пу@@ 107923
уда@@ 107922
erfolg 107920
ष 107852
лли@@ 107851
situ@@ 107828
стороны 107827
dt 107823
opera 107797
بي 107781
anne@@ 107773
основ@@ 107767
рования 107762
تن@@ 107760
села 107749
центра 107745
hr 107744
mesure 107741
ческим 107741
23. 107733
bel 107729
thien 107725
seurs 107714
洛@@ 107692
sociedad 107690
над@@ 107635
andre 107628
罗@@ 107624
obten@@ 107621
contribu@@ 107606
ati 107593
chat 107591
клуб 107566
ет@@ 107556
рон@@ 107539
лем 107482
alexander 107410
總@@ 107407
nomin@@ 107336
kien 107316
шего 107306
tient 107295
dem@@ 107279
gauche 107235
раль@@ 107182
дра@@ 107165
Фе@@ 107163
mettre 107062
率 107054
الله 107050
derecho 107032
вос@@ 107032
бан@@ 107027
ева 107025
enthalt 106999
اخ@@ 106989
siempre 106973
cour 106924
tado 106873
cli@@ 106865
родился 106848
ive 106843
alta 106840
possede 106825
Кроме 106821
cs 106808
通 106795
direktor 106786
кова 106772
流@@ 106710
ters 106706
inicio 106674
шим 106667
meisterschaft 106665
suisse 106660
explo@@ 106654
erei 106639
五@@ 106602
基@@ 106593
equipos 106584
цент@@ 106554
recibio 106544
construit 106528
lt 106522
porque 106512
decor@@ 106489
ري 106469
nac@@ 106451
e. 106431
ني 106423
celui-ci 106417
truyen 106406
tief@@ 106385
受 106376
imp@@ 106372
1月 106365
вших 106362
clar@@ 106354
ob 106345
cuerpo 106331
ss@@ 106313
teilen 106309
ieres 106289
nous 106278
площадь 106245
spat@@ 106239
менее 106217
italia 106205
вался 106158
син@@ 106157
вского 106152
ше 106152
wand@@ 106144
万 106093
نا 106090
ว 106074
аться 106063
اول 105989
lequel 105971
ще 105932
stammt 105903
differentes 105886
sor 105869
fest 105868
би 105848
daraufhin 105844
回@@ 105842
nhac 105801
合 105798
1903 105767
ध 105762
ขน 105751
स@@ 105744
administrat@@ 105699
voie 105687
тель@@ 105682
equip@@ 105680
зан@@ 105659
bern@@ 105649
mt 105646
΄ 105643
ano@@ 105626
vuong 105625
trainer 105571
großte 105570
ater 105560
weniger 105560
entales 105558
26. 105530
tem 105521
щи@@ 105507
wi@@ 105499
forschung 105481
grupos 105470
sino 105469
wert 105464
gestion 105437
лои 105428
denkmal@@ 105419
espagne 105404
legte 105367
yeu 105342
nouvelles 105315
considere 105276
9,@@ 105264
sdorf 105229
cla@@ 105216
ата@@ 105205
6.@@ 105202
ace 105195
университета 105173
gren@@ 105172
privat@@ 105168
27. 105154
nan@@ 105131
œuvres 105125
Об@@ 105116
walter 105115
国家 105115
superior 105087
roman@@ 105070
стом 105062
الا 105061
baren 105058
Че@@ 105037
º 105028
movimiento 105003
mehr@@ 104999
сь 104967
sche@@ 104964
公里 104964
article 104958
raf@@ 104891
igte 104872
wein@@ 104858
kim 104807
auff@@ 104786
chr. 104777
constitue 104759
gleich 104750
canciones 104739
церкви 104710
will 104700
эта@@ 104677
angel@@ 104659
wahlen 104621
tent 104601
trai 104580
口 104562
relacion 104534
groupes 104528
重 104479
属 104453
alemania 104430
dy 104378
py@@ 104353
erwahnt 104320
proche 104311
river 104282
pes 104255
把 104245
bewegung 104238
mucho 104233
king 104221
truppen 104218
وا 104212
eras 104208
forces 104205
vuc 104171
電@@ 104157
tot 104120
tuyen 104099
enth@@ 104080
3月 104051
indepen@@ 103999
inin 103991
физи@@ 103982
尼 103982
proceso 103973
вались 103895
щии 103895
sat 103875
nete 103856
ата 103842
tho@@ 103831
formacion 103776
wahr@@ 103766
mehreren 103752
mos 103730
patri@@ 103698
機@@ 103697
mua 103658
weiß@@ 103646
dado 103634
Франции 103634
五 103634
達@@ 103604
johannes 103548
tungs@@ 103536
ende@@ 103531
6月 103521
伊@@ 103521
表示 103518
rep@@ 103514
ины 103484
المن@@ 103474
μ@@ 103470
papel 103467
energie 103455
ware 103441
male 103423
一些 103419
pris 103400
Бар@@ 103390
fertig@@ 103382
hur@@ 103372
avaient 103345
cias 103325
fa 103324
arab@@ 103310
nicolas 103301
lebte 103275
ющим 103265
賽 103256
prof@@ 103248
tuy 103244
angleterre 103233
fau@@ 103207
federation 103197
brachte 103185
prendre 103174
hilfe 103168
schon@@ 103168
simple 103154
pun@@ 103142
tales 103116
regional 103115
absolvierte 103110
edicion 103079
兵 103071
olympischen 103069
выми 103062
direk@@ 103055
还 103046
hall 103038
5月 103015
ителем 102998
Сер@@ 102985
ровать 102982
जाता 102954
maniere 102921
чение 102912
diendo 102840
ικου 102838
образования 102830
best@@ 102819
1902 102792
бе 102772
museo 102770
stie@@ 102740
П. 102739
important 102691
وكانت 102652
ax@@ 102648
म@@ 102648
zel 102634
ही 102619
чеи 102609
07 102600
especes 102600
latin 102595
culture 102559
hard 102559
впервые 102549
либо 102546
vorsitzender 102533
texte 102528
idee 102472
band@@ 102469
neg@@ 102428
aren 102413
cite 102411
denk@@ 102394
κ@@ 102385
王@@ 102385
dente 102380
osos 102376
手@@ 102359
love 102257
восто@@ 102257
ενω 102256
republik 102255
ителя 102227
roma 102200
ดวย 102166
μα 102146
ши 102140
control 102136
eler 102132
medios 102132
sciences 102127
вз@@ 102108
nacio 102076
мет@@ 102071
pham 102067
اش@@ 102063
29. 102052
дар@@ 102046
eil@@ 102029
gur@@ 102024
orient@@ 102004
gle@@ 101990
間@@ 101980
bande 101975
ския 101967
heimat@@ 101965
ernst 101940
ganz 101924
dau@@ 101911
зов 101908
folgt 101895
δυο 101882
provo@@ 101863
щения 101860
entwickelte 101829
обы@@ 101821
4月 101820
τες 101807
kampf 101800
debe 101796
бои 101793
بها 101784
政治 101768
eso 101752
250 101746
nachbar@@ 101744
十 101739
klar@@ 101734
ν@@ 101732
形 101691
rome 101685
tiere 101670
emer@@ 101649
uy@@ 101611
各 101606
gebau@@ 101599
issant 101599
prag@@ 101591
but@@ 101577
double 101543
bauten 101518
chau@@ 101508
كرة 101508
permit@@ 101503
ہیں 101462
markt 101460
llamada 101440
гро@@ 101438
交@@ 101431
setzt 101429
neces@@ 101428
य@@ 101421
stal@@ 101419
wie@@ 101402
立@@ 101372
entreprise 101371
min 101371
exten@@ 101347
به 101346
due 101313
lis 101289
река 101271
ε 101270
comunidad 101268
philosophie 101268
тот 101254
tuc 101250
kno@@ 101220
collec@@ 101219
großten 101190
az 101181
تم@@ 101178
жда@@ 101157
щих 101120
la-@@ 101116
punkte 101110
metr@@ 101087
政@@ 101082
frage 101068
берегу 101029
все@@ 101008
unden 101006
cuu 100972
kop@@ 100956
chor@@ 100953
قة 100944
glau@@ 100936
днеи 100935
主 100910
plaza 100893
府 100889
edificio 100877
favor@@ 100875
empresa 100869
consul@@ 100850
ش 100840
Кор@@ 100836
ственнои 100830
威@@ 100830
группа 100814
市镇 100791
ernannt 100752
œ@@ 100699
activite 100692
sede 100680
services 100659
цами 100622
Τ@@ 100589
فر@@ 100574
lander 100557
達 100548
presse 100513
кого 100509
sant 100482
开@@ 100480
israel 100478
gewesen 100448
stoff@@ 100444
kirchen 100443
сборнои 100443
До 100434
Π@@ 100412
england 100388
好 100372
irs 100354
trou@@ 100352
großer 100328
nachfolger 100326
изда@@ 100304
если 100301
presence 100281
工@@ 100262
chicago 100258
片 100244
共 100233
1901 100226
elt 100219
fuerzas 100211
يل 100160
ых 100152
bio 100147
гом 100118
camp@@ 100101
數@@ 100068
doppel@@ 100060
benannt 100044
مر@@ 100041
funktion 100039
rejoint 100038
ться 100027
nement 99988
amerika 99980
cee 99960
setzen 99958
วนท 99958
bere@@ 99937
дии 99936
zeitung 99906
участ@@ 99906
kapelle 99866
principalmente 99853
direccion 99830
0.000 99807
madre 99799
dai 99776
is-@@ 99769
сту@@ 99754
tac@@ 99743
programm 99708
prince 99706
dix 99705
vertreter 99689
семье 99678
फ 99641
att@@ 99636
語 99612
ومن 99572
每 99564
يات 99530
04 99521
regiment 99514
жен 99501
limite 99499
wah@@ 99471
испол@@ 99470
开始 99424
发@@ 99415
ato@@ 99407
vision 99378
нет 99330
garten 99302
ถก 99293
fiel 99285
halfte 99255
ряд 99248
разме@@ 99237
одного 99223
jahrigen 99179
mig@@ 99175
входит 99173
champion 99153
pie@@ 99144
وك@@ 99114
tiva 99110
道@@ 99086
сам 99066
wenig 99062
verkehr@@ 99060
рус@@ 99056
istischen 99054
ваться 99050
categoria 99042
состоя@@ 99032
dencia 99013
meses 98987
verheiratet 98968
fußball@@ 98957
distribu@@ 98949
гии 98939
hier@@ 98938
jesus 98937
губернии 98921
ницы 98898
120 98883
lehrer 98852
uc 98837
boden 98829
capitale 98826
may@@ 98819
jon 98817
นน 98816
bayern 98793
guer@@ 98789
ско 98785
federal 98783
matchs 98771
никами 98752
gente 98686
通@@ 98673
welches 98661
المع@@ 98657
7.@@ 98640
differ@@ 98623
мм 98623
雷@@ 98619
гово@@ 98608
актив@@ 98605
จง 98592
acep@@ 98574
06 98564
đon 98560
avi@@ 98554
تقع 98554
委 98547
игры 98540
итель 98538
сезона 98538
ale@@ 98519
ray@@ 98462
propre 98446
كي@@ 98441
g. 98432
tien@@ 98428
portugal 98425
iden 98415
generalement 98398
τικη 98395
ๆ 98377
amerikanischen 98366
уз@@ 98343
гон@@ 98341
метров 98329
женщин 98317
conjunto 98307
важ@@ 98282
выпол@@ 98267
щение 98253
vac@@ 98214
seis 98203
travers 98203
och@@ 98201
f. 98195
пове@@ 98160
windows 98153
arrondissement 98146
dist@@ 98140
فيها 98129
recoit 98113
organizacion 98102
реи@@ 98097
ordnung 98071
model@@ 98061
mee 98045
ow 98013
jeunes 97999
cis@@ 97997
resultats 97991
professeur 97990
еди@@ 97970
士@@ 97963
hay@@ 97939
iel@@ 97927
politischen 97907
isse 97902
propio 97892
края 97875
اه@@ 97873
從@@ 97873
reference 97872
tragt 97864
линии 97862
дж@@ 97841
tou@@ 97840
منها 97836
31. 97832
наук 97827
chev@@ 97817
ил 97811
valle 97803
اج@@ 97773
einwohnern 97763
huit 97755
تع@@ 97741
primero 97739
nag@@ 97738
leipzig 97736
氏 97710
esch@@ 97705
zeich@@ 97698
seit@@ 97693
β@@ 97688
arg@@ 97685
pras@@ 97683
divis@@ 97669
ics 97646
sir@@ 97643
axe 97621
系 97613
反@@ 97605
и-@@ 97599
super 97541
big 97536
kultur 97534
свое 97524
invit@@ 97515
rechte 97515
occasion 97511
жителеи 97511
unas 97498
вол@@ 97489
спа@@ 97479
工 97478
ху@@ 97466
يد 97459
02 97454
fte 97451
εκ@@ 97435
曲 97430
gesetz@@ 97334
california 97333
ване 97333
бу 97319
entwickelt 97265
которое 97264
ades 97250
11月 97218
dient 97208
часто 97200
disput@@ 97182
aden 97174
界 97162
comple@@ 97148
photo@@ 97126
ulo 97119
dri@@ 97106
vul@@ 97089
graf 97076
oma 97069
поль@@ 97051
mando 97040
30@@ 97017
in-@@ 96992
мен 96984
цо@@ 96982
Согласно 96943
trotz 96911
asia 96909
gesetz 96886
را 96885
cuoi 96861
steig@@ 96841
我 96841
dice 96825
vec@@ 96825
hochschule 96795
英 96785
ubicada 96770
nh@@ 96755
# 96730
laut 96718
kes@@ 96706
الي@@ 96703
Республики 96672
прода@@ 96667
ниям 96644
witz 96643
од@@ 96622
schulen 96597
kaiser 96584
franzosische 96575
настоящее 96565
publi@@ 96555
moyenne 96552
οποια 96543
kus@@ 96509
tom 96504
1890 96501
britischen 96497
besie@@ 96475
образо@@ 96471
co-@@ 96465
probleme 96449
ช 96445
ено 96425
25@@ 96421
schen@@ 96406
moderne 96389
lediglich 96381
black 96380
ires 96365
xviii 96363
span@@ 96327
ан 96325
live 96318
сня@@ 96318
yu@@ 96309
Μ@@ 96294
afrique 96288
tischen 96285
spar@@ 96277
control@@ 96262
moder@@ 96244
set@@ 96239
elo@@ 96235
कार 96233
nimmt 96227
miguel 96213
يمكن 96212
cinema 96202
eleve 96202
във 96197
дами 96194
familienname 96187
ителеи 96155
sante 96138
лена 96134
realizo 96103
umfasst 96097
1870 96077
phuc 96062
ทาง 96062
ball 96022
politik 95999
ox@@ 95993
隊 95987
azo 95980
benen 95979
維@@ 95973
المح@@ 95966
unde 95963
fie@@ 95946
caus@@ 95914
Κ@@ 95909
company 95885
1898 95880
kaiser@@ 95820
lern 95814
thiet 95806
fanden 95793
lied 95757
相 95753
arasında 95740
ası 95737
电@@ 95716
Совета 95706
白@@ 95703
แหง 95702
that 95680
afric@@ 95677
was@@ 95672
意 95664
kommen@@ 95654
江 95616
rouge 95597
metern 95592
типа 95582
dispar@@ 95576
legislat@@ 95575
ъ@@ 95567
klas@@ 95532
jazz 95531
成为 95524
obtuvo 95519
instituto 95517
ката 95516
chal@@ 95515
спи@@ 95512
cri@@ 95499
зер@@ 95493
蘭@@ 95486
lance 95482
1897 95452
travaille 95449
неи@@ 95435
sign@@ 95422
электро@@ 95420
unique 95418
рован 95417
orden@@ 95401
正式 95364
frank 95338
момент 95334
deten@@ 95319
ческом 95304
ство@@ 95237
диа@@ 95231
mecan@@ 95224
логи@@ 95204
fuß@@ 95145
ji 95143
зе 95140
smith 95134
laz@@ 95124
natural 95104
vers@@ 95101
label 95021
kraft 95009
和@@ 95000
combat@@ 94986
трех 94958
rapidement 94943
principe 94931
gerich@@ 94918
wider@@ 94915
выпу@@ 94911
ول 94889
projekt 94888
hit@@ 94866
einmal 94864
estaban 94861
wesen 94860
s.@@ 94855
हो 94853
сель@@ 94838
東 94834
вана 94821
gar 94803
deut@@ 94798
进行 94794
sto 94777
Фран@@ 94755
вид@@ 94754
1899 94738
semin@@ 94712
ihres 94694
Ново@@ 94678
aro 94661
e.@@ 94654
нам 94651
pont 94642
лением 94629
ack@@ 94619
сси@@ 94595
长@@ 94581
l. 94555
cruz 94540
вновь 94534
沙@@ 94524
理@@ 94501
entree 94484
θα 94474
bran@@ 94464
卡 94441
dirige 94436
серии 94420
队 94414
tradition 94405
กน 94352
spielt 94341
явля@@ 94324
isi 94319
sogar 94264
提供 94198
elecciones 94196
bab@@ 94188
evolu@@ 94165
metres 94128
вскии 94124
路@@ 94107
改 94100
بل@@ 94076
fuhrten 94061
dance 94055
1896 94045
ссо@@ 94042
ilo@@ 94036
resto 94032
台灣 94020
ющего 94011
landern 94001
beruf@@ 93994
體@@ 93908
k-@@ 93897
siedlung 93888
ค 93888
光@@ 93883
bisher 93844
represente 93839
principios 93822
总@@ 93794
frankfurt 93787
materi@@ 93782
bot 93777
meilleur 93771
gelegt 93769
droits 93756
bevor 93724
шая 93709
ria 93707
hat@@ 93705
kte 93704
normal@@ 93703
ington 93650
ясь 93631
заня@@ 93619
moyen 93611
art@@ 93600
ровал 93543
тных 93543
graphique 93521
心 93512
segu@@ 93508
just@@ 93505
Германии 93505
коло@@ 93493
gegeben 93441
philippe 93435
кт@@ 93428
ep 93410
tifs 93407
veget@@ 93366
атель 93325
ныне 93323
haf@@ 93273
schweizer 93264
eisen@@ 93256
simon 93256
gemeinschaft 93232
deck@@ 93222
194@@ 93205
ε@@ 93187
va@@ 93181
значитель@@ 93165
kadar 93162
pav@@ 93157
ونسبة 93150
labor@@ 93141
heiratete 93136
creee 93132
bonne 93103
mou@@ 93081
vai 93041
Европы 93033
calle 93016
альбом 93015
classement 93012
garde 92965
室 92927
ziel@@ 92923
Ε@@ 92915
09 92913
publicado 92912
популяр@@ 92896
recuper@@ 92859
fres@@ 92856
ativa 92851
Вер@@ 92851
pee 92846
jas 92818
republic@@ 92794
平 92751
porter 92732
nab@@ 92731
ниче@@ 92716
الي 92679
ющая 92659
folgen 92654
leben@@ 92639
rom 92632
wood 92631
χ@@ 92626
vig@@ 92608
quy 92579
viv@@ 92578
bene 92551
peru 92524
machen 92522
власти 92515
stade 92487
politico 92480
ты@@ 92448
ortsteil 92440
нок 92433
श 92431
则 92403
commun@@ 92398
clubs 92386
ляет 92377
кое 92352
gat@@ 92323
befand 92320
эти 92304
ancak 92299
ame 92239
則 92236
Раз@@ 92232
ings 92222
γ@@ 92182
erer 92179
figur@@ 92177
189@@ 92144
tours 92116
1895 92106
participo 92095
196@@ 92074
ισ@@ 92073
wirtschaft 92072
пан@@ 92037
новои 92019
signific@@ 92017
ns 92012
đac 92007
code 91998
британ@@ 91972
令 91967
deutsch 91953
troupes 91941
illas 91939
花@@ 91930
zusatzlich 91916
sten@@ 91885
bischof@@ 91860
bekann@@ 91853
имя 91853
zur@@ 91851
ehemalige 91842
作品 91841
дия 91808
بـ 91788
οπως 91787
jugador 91779
sur-@@ 91777
gmbh 91752
мин@@ 91750
ast 91741
Как 91715
занима@@ 91712
ω@@ 91682
nghe 91670
interior 91657
interieur 91648
ود@@ 91630
ori@@ 91626
chine 91605
cotes 91589
jag@@ 91579
работ@@ 91570
ume 91559
condu@@ 91556
hut@@ 91555
Федерации 91530
школы 91513
boh@@ 91506
web 91503
lager 91502
назва@@ 91487
parque 91471
perio@@ 91469
奧@@ 91459
zi 91458
lara 91453
human@@ 91444
раи@@ 91444
mujer 91437
kis@@ 91436
隊@@ 91422
eh@@ 91415
phy@@ 91410
revista 91408
etti 91403
sburg 91367
estable@@ 91357
ring@@ 91355
beobach@@ 91351
paul@@ 91351
ition 91313
she@@ 91287
koln 91272
hauptstadt 91261
ome 91256
auer 91221
управления 91210
兩 91198
lorsqu' 91179
ffe 91118
kunstler@@ 91115
aco 91092
gouverneur 91092
islam@@ 91054
объеди@@ 91052
uten 90962
sas@@ 90949
druck 90944
пы 90939
chas@@ 90938
tia 90926
реи 90881
وح@@ 90879
гар@@ 90872
raum@@ 90866
phi 90840
pop 90837
приня@@ 90835
ασ@@ 90829
trin@@ 90826
jam@@ 90817
herr@@ 90813
hombre 90810
хотя 90804
太@@ 90796
brun@@ 90784
Ча@@ 90769
伯@@ 90758
nisse 90744
屬 90744
open 90735
truc 90729
селе 90724
damaligen 90716
2009年 90707
competition 90693
φ@@ 90684
ляется 90634
• 90625
дах 90615
10-@@ 90608
seleccion 90604
население 90594
由於 90573
απο@@ 90559
verlang@@ 90558
erd@@ 90551
лено 90525
教 90524
antiguo 90510
bare 90508
文化 90491
класси@@ 90489
repar@@ 90461
erreichen 90447
cultura 90444
zie@@ 90431
git@@ 90386
source 90349
lanz@@ 90348
العالم 90342
宗 90337
賽@@ 90335
schif@@ 90329
الز@@ 90317
sche 90311
chat@@ 90298
तर 90283
ives 90277
ждение 90254
beru@@ 90235
τικο 90232
alis 90192
град 90163
четвер@@ 90156
quitte 90154
wohl 90145
fernando 90141
igung 90109
zuf@@ 90098
اله@@ 90088
incluyendo 90072
тыи 90066
市@@ 90031
目前 90030
essen 89998
bs@@ 89982
вании 89975
fah@@ 89959
digt 89945
व@@ 89931
nghia 89914
honneur 89907
hi 89902
einzige 89901
marco 89892
sco@@ 89888
像 89865
ical 89845
тяже@@ 89831
提 89821
многих 89802
ener 89792
utz@@ 89788
атов 89780
rang@@ 89770
yn@@ 89768
季 89755
城市 89720
ικες 89705
teilung 89690
igual 89685
tions@@ 89681
честь 89679
ити 89663
sait 89662
علي 89655
nap@@ 89652
ارة 89644
ευ@@ 89636
leicht 89624
plata 89624
besitzt 89620
regel 89617
zeitschrift 89614
fit 89598
تف@@ 89568
brit@@ 89563
igu@@ 89562
окончил 89546
chap@@ 89541
частности 89529
дру@@ 89528
mussen 89507
жена 89495
fuerza 89479
เพอ 89479
kanton 89478
人民 89467
право@@ 89466
sal 89458
число 89444
vua 89429
vin 89427
major 89414
художе@@ 89412
работа@@ 89406
burgermeister 89387
ary 89384
villes 89374
religion 89364
福@@ 89364
線@@ 89360
combin@@ 89339
heit@@ 89324
наиболее 89302
combat 89294
Александр 89292
700 89279
ย 89278
decision 89269
estar 89244
則@@ 89243
Москве 89223
palais 89204
田 89201
eig@@ 89186
60@@ 89154
oti@@ 89143
тил 89135
traite 89116
pues 89114
उत 89113
официаль@@ 89104
koh@@ 89079
голо@@ 89066
recor@@ 89063
wag@@ 89042
record 89039
установ@@ 89030
award 89004
islas 88995
maire 88983
posible 88966
校 88953
hauses 88936
clas@@ 88926
αρ@@ 88919
chaine 88880
arz@@ 88867
aliment@@ 88864
eri@@ 88861
戰 88847
плат@@ 88841
trop@@ 88839
бри@@ 88835
llegar 88833
naire 88829
bong 88801
8.@@ 88798
tees 88792
chim@@ 88791
dra 88790
世@@ 88790
wissenschaft 88785
sexu@@ 88780
пода@@ 88771
affaires 88765
unico 88765
ностеи 88694
xvi 88677
направ@@ 88673
perman@@ 88666
ват@@ 88659
специаль@@ 88658
塞@@ 88641
Входит 88634
lui-meme 88606
nier 88596
bord 88563
英@@ 88562
correspon@@ 88554
机 88530
ко-@@ 88516
inen 88504
науч@@ 88499
nombrado 88498
yer@@ 88492
serait 88486
course 88481
epo@@ 88473
мати@@ 88463
prise 88454
đien 88452
sw@@ 88425
chil@@ 88417
exter@@ 88403
больше 88378
оп@@ 88370
дивизии 88367
клуба 88342
亚@@ 88338
abschluss 88329
betragt 88329
enci@@ 88327
содержа@@ 88299
giam 88295
uel 88290
incorpor@@ 88273
tz@@ 88260
aparece 88259
детеи 88249
zentr@@ 88233
цу 88215
ब@@ 88203
basis 88202
ход 88191
conten@@ 88182
minist@@ 88178
ени 88178
commission 88173
Кри@@ 88158
za@@ 88151
gebiete 88149
weltmeisterschaft 88112
itud 88076
uk 88059
数 88034
кин@@ 88027
ческую 87994
montre 87966
dvd 87963
aucun 87957
gie@@ 87957
1880 87944
acteur 87933
voix 87892
вшие 87887
кла@@ 87868
enas 87859
المدينة 87855
現@@ 87832
административ@@ 87826
От 87804
нер@@ 87798
transport 87791
especialmente 87790
окру@@ 87779
p. 87770
alista 87757
apoyo 87752
brasil 87752
set 87748
lot 87745
ester 87729
fruh@@ 87720
ellas 87702
liv@@ 87700
193@@ 87688
различных 87686
ственныи 87682
oles 87648
但是 87646
sociales 87633
cav@@ 87621
schlacht 87615
उन 87586
張@@ 87539
tap@@ 87538
sek@@ 87536
hun@@ 87529
jahr@@ 87485
etude 87456
hijos 87454
होन 87424
modi@@ 87417
alt 87414
astronom@@ 87411
campagne 87399
chet 87390
количество 87382
ski@@ 87380
straf@@ 87376
gru@@ 87366
sortie 87327
elli 87320
fotograf@@ 87316
dieu 87314
fein@@ 87298
ichen 87298
منطقة 87259
new@@ 87249
بع@@ 87246
mern 87240
治 87236
内@@ 87234
ικων 87221
использо@@ 87207
побе@@ 87205
fusion 87192
ick 87188
deutsch@@ 87183
деиствия 87182
modo 87173
ine@@ 87151
mant@@ 87142
spe@@ 87142
людеи 87133
тур@@ 87126
municipalite 87120
場@@ 87120
50@@ 87107
anterior 87102
ologischen 87093
flam@@ 87086
hermano 87076
ars 87072
stag 87071
seiten 87066
cac@@ 87034
administration 87011
gore 87007
武@@ 86990
tema 86985
kommun@@ 86959
夫@@ 86959
section 86956
hydro@@ 86948
atten@@ 86945
城@@ 86942
consejo 86937
controle 86921
hija 86914
便 86903
forsch@@ 86898
berech@@ 86894
well 86884
кри@@ 86877
freien 86876
weist 86870
语 86851
giua 86850
ose 86849
Ше@@ 86830
ез@@ 86778
ppe 86771
达 86748
ahn@@ 86717
apparait 86711
lap@@ 86696
arre@@ 86695
يت@@ 86670
ostlich 86658
льном 86637
ehr@@ 86635
main@@ 86631
abandon@@ 86628
idea 86628
права 86627
空@@ 86626
करन 86612
isiert 86611
ennes 86609
ας 86586
ific@@ 86581
wat@@ 86581
mah@@ 86572
tungen 86562
開始 86544
؛ 86534
possible 86525
11@@ 86520
1848 86510
val 86502
200@@ 86485
поме@@ 86465
nde 86464
mix@@ 86461
بن@@ 86458
geschlossen 86456
declar@@ 86441
informat@@ 86441
каза@@ 86418
venezuela 86397
ds@@ 86389
pen 86373
Родился 86371
क@@ 86366
wenige 86359
gymnasium 86343
droite 86331
культуры 86316
fab@@ 86304
nhiem 86298
塔@@ 86293
milit@@ 86246
ново@@ 86238
东 86212
dios 86203
regierungs@@ 86200
ходит 86195
vivi@@ 86186
Так 86185
hong 86154
deshalb 86146
stellten 86140
基 86127
nowiki 86101
viert 86085
بو@@ 86066
eda 86036
प@@ 86026
magn@@ 86000
cuc 85978
ej@@ 85942
embar@@ 85940
aupres 85935
atoire 85904
كم 85895
celebre 85881
rose 85860
sert 85858
прове@@ 85852
време 85851
blanc 85831
nghi 85825
提@@ 85816
faisant 85805
westlich 85804
bilden 85798
confir@@ 85755
afrika 85754
adel@@ 85745
passage 85735
лению 85718
λ@@ 85687
bezir@@ 85684
дро@@ 85681
成為 85667
pologne 85650
点 85644
stab@@ 85636
推@@ 85618
hus@@ 85613
動 85612
tement 85604
lebt 85584
silber@@ 85584
жены 85576
det@@ 85571
част 85566
чная 85557
botan@@ 85555
bin 85554
particulierement 85553
03 85552
ların 85544
stande 85527
verbunden 85523
asist@@ 85520
oldu 85519
spateren 85514
defense 85509
шу@@ 85478
izo 85466
facon 85460
石@@ 85447
dir@@ 85430
степени 85425
bringen 85419
Из 85415
стало 85405
swe@@ 85385
propose 85374
zem@@ 85360
superieur 85334
celles 85330
qued@@ 85328
technique 85316
gattung 85278
hermann 85261
ity 85242
首@@ 85240
rup@@ 85219
bedeut@@ 85209
loc@@ 85200
حة 85192
fruhen 85165
texas 85154
лых 85135
atorio 85127
ahora 85126
alber@@ 85125
э 85125
ब 85062
فان 85049
aki 85033
2011年 85019
chemin 85014
politische 85014
compet@@ 84993
hn 84991
tec@@ 84958
attaque 84949
kwa 84949
crit@@ 84946
情 84928
195@@ 84925
وص@@ 84923
format@@ 84920
vee 84888
слу@@ 84875
gens 84859
divi@@ 84839
未 84819
ток 84814
lief 84787
ngu 84785
дал 84757
основном 84752
vermutlich 84727
turk@@ 84721
tiv@@ 84715
關@@ 84714
sberg 84713
而@@ 84707
liefer@@ 84706
ema 84682
οταν 84674
faut 84661
issement 84656
chong 84647
الة 84643
march@@ 84636
тнои 84612
لية 84598
wiener 84597
jos 84585
betre@@ 84582
以下 84561
iro 84544
зы@@ 84521
stif@@ 84517
berich@@ 84505
احدى 84470
rado 84469
terrain 84468
образование 84462
historique 84450
maur@@ 84441
demon@@ 84433
اخرى 84420
onne 84375
2010年 84360
exper@@ 84344
nghiep 84337
kit@@ 84332
elements 84322
comprend 84320
اث@@ 84303
russe 84301
قدم 84293
20-@@ 84275
gel 84249
сохрани@@ 84200
打@@ 84193
yoktur 84175
portant 84171
стью 84167
stimmen 84157
assez 84155
duoi 84149
والتي 84144
amts@@ 84110
flachen 84105
ен 84095
academie 84089
onie 84069
past@@ 84064
профессиона@@ 84041
pho@@ 84039
pu 83996
jon@@ 83995
gracias 83985
sommer@@ 83972
мон@@ 83968
eigent@@ 83962
liqu@@ 83948
хоро@@ 83927
cido 83926
island 83925
188@@ 83918
是@@ 83918
回 83907
đoc 83895
georges 83883
friedhof 83872
сен 83872
iy@@ 83852
plant@@ 83852
元@@ 83849
graben 83832
journ@@ 83819
aktiv 83810
viel 83781
老@@ 83769
案 83766
點 83757
接@@ 83752
occidental 83740
gem 83739
toc 83739
ща 83736
яв@@ 83734
mannschaften 83730
magazine 83725
campeon 83692
thap 83673
servicios 83658
angel 83640
льную 83631
oy@@ 83623
دا 83623
间 83617
فية 83607
heraus@@ 83602
دون 83602
нескольких 83595
تج@@ 83594
све@@ 83580
educacion 83555
шки 83541
mic@@ 83539
kopf 83516
вии 83496
1871 83483
稱 83468
θηκε 83465
not@@ 83462
ji@@ 83453
atteint 83447
dres@@ 83440
feuer@@ 83401
sach 83398
fruher 83394
лит@@ 83392
0-х 83358
ill@@ 83352
ора 83352
Великои 83334
parties 83333
rier 83330
шли 83325
yi 83323
sle@@ 83320
literatur 83296
ble 83285
formo 83276
мировои 83275
jeder 83272
принял 83267
tatigkeit 83265
joven 83246
места 83238
fut@@ 83228
здесь 83219
تو@@ 83217
formula_@@ 83216
osterreichischen 83210
atus 83200
exclus@@ 83200
statt@@ 83185
espace 83164
into 83161
introdu@@ 83159
1,5 83139
dich 83138
مش@@ 83130
作@@ 83122
gers 83117
政 83117
попа@@ 83104
ص 83091
mene 83063
1889 83059
εται 83053
Восто@@ 83050
ल@@ 83046
назна@@ 83035
oficina 83034
помо@@ 82998
тон 82988
vertre@@ 82982
trop 82981
чемпионате 82970
zust@@ 82968
тысяч 82954
fecha 82950
1885 82940
بشكل 82928
kla@@ 82917
nhau 82907
chambre 82899
rak@@ 82863
стоя@@ 82863
claude 82862
поли@@ 82859
marqu@@ 82841
trom@@ 82837
емых 82834
ono 82812
张 82811
depart 82808
ivas 82807
шта@@ 82785
plu@@ 82784
politiques 82784
角 82774
отправ@@ 82752
коле@@ 82751
約@@ 82740
inspir@@ 82737
Ман@@ 82731
女@@ 82727
falls 82721
дения 82717
sir 82714
Отечественнои 82714
wechsel@@ 82710
另 82706
постав@@ 82678
т-@@ 82674
師 82673
realiz@@ 82657
yon@@ 82644
иских 82636
員@@ 82622
مس@@ 82598
ices 82595
uo@@ 82573
bres@@ 82548
zuletzt 82544
episode 82536
logro 82535
hoat 82529
която 82528
อน 82519
pou@@ 82503
тон@@ 82485
dav@@ 82458
своим 82456
轉@@ 82449
社 82444
程 82442
investigacion 82440
шение 82428
وف@@ 82411
tercera 82409
дин@@ 82380
profesional 82368
mode 82362
connue 82347
trien 82339
daneben 82338
statist@@ 82338
所有 82299
اص@@ 82295
يتم 82285
centrale 82283
تص@@ 82270
дает 82268
ingen@@ 82267
yen@@ 82255
anci@@ 82248
40@@ 82241
psych@@ 82237
steuer@@ 82225
1860 82221
密度 82211
nationalmannschaft 82203
再 82194
xv 82192
neur@@ 82183
unido 82180
initi@@ 82171
herausge@@ 82152
下辖 82152
tournee 82143
лек@@ 82143
Гор@@ 82132
常 82131
vallee 82130
周 82124
naz@@ 82119
locales 82117
nte 82116
член 82098
الاول 82091
nant 82075
mos@@ 82070
entfernt 82062
1891 82055
wuchs 82055
нин@@ 82038
tamente 82028
llam@@ 82012
nik@@ 82011
1893 81989
تل@@ 81986
einz@@ 81982
etr@@ 81970
gouver@@ 81967
یہ 81965
他们 81963
ल 81946
kil@@ 81944
rien 81939
verlag 81923
ce-@@ 81910
thieu 81910
camp 81895
ث 81894
नही 81887
proce@@ 81884
gangen 81861
рует 81846
没有 81818
провел 81816
роди@@ 81813
древ@@ 81811
schlos@@ 81802
работу 81799
schne@@ 81792
dit@@ 81788
atom@@ 81784
stern 81784
первого 81773
лах 81769
ок@@ 81757
Г. 81750
eher 81736
grunden 81731
26@@ 81726
全 81720
ред@@ 81715
quel@@ 81707
train@@ 81697
ствен@@ 81691
约 81691
alo 81685
actividad 81679
н. 81665
decir 81663
istanbul 81660
ans@@ 81650
稱@@ 81641
ling@@ 81629
nau@@ 81627
polen 81627
rock@@ 81620
уничто@@ 81597
1892 81576
сотруд@@ 81575
modelo 81570
chir@@ 81547
demo@@ 81544
teilt 81539
associ@@ 81537
informacion 81531
nig@@ 81495
εξ@@ 81491
lı 81478
ony@@ 81461
號@@ 81435
себе 81434
choi 81430
Гри@@ 81423
bucher 81404
nouveaux 81391
العديد 81376
ail@@ 81316
generale 81312
рен 81297
чемпионата 81285
victor 81284
salle 81264
выде@@ 81244
argent 81241
populaire 81232
encontr@@ 81231
etas 81225
filme 81220
十@@ 81219
produits 81202
jack 81180
revel@@ 81171
fat@@ 81156
vierte 81151
распростра@@ 81151
Фа@@ 81138
garcia 81135
aise 81134
руковод@@ 81127
batiment 81108
новых 81107
век 81106
creacion 81103
royaume 81090
einzelnen 81083
personnage 81082
валась 81081
ไดรบ 81070
2月 81064
भारत 81045
denn 81041
verkehrs@@ 81025
fou@@ 81020
мужчин 81005
itude 80997
auen 80996
таких 80981
situado 80979
bulgar@@ 80977
illon 80966
leistung 80966
史 80963
dungen 80954
тор 80935
設 80885
dor 80865
187@@ 80863
haltung 80839
uy 80839
forte 80816
यक 80804
schil@@ 80802
ара 80802
1894 80795
imper@@ 80780
Гер@@ 80768
hervor@@ 80761
хода 80756
收@@ 80750
ственных 80721
чу 80716
dante 80715
enos 80711
personal 80711
titres 80697
тер 80680
krieg@@ 80676
state 80676
recu@@ 80673
П 80670
spec@@ 80660
an-@@ 80644
impul@@ 80628
1878 80609
身 80605
publica 80602
analy@@ 80599
Союза 80582
them@@ 80545
schluss 80540
Она 80535
直@@ 80521
especial 80518
activites 80511
احد 80503
taux 80441
вшись 80438
meister@@ 80426
iran 80421
diseno 80388
ero@@ 80384
falle 80374
цкии 80366
stiftung 80349
取 80323
ard@@ 80304
sac 80303
institu@@ 80297
kuste 80297
otor@@ 80296
viel@@ 80288
schuler 80286
流 80283
devenu 80273
мощ@@ 80271
offentlichen 80256
jungen 80252
рального 80234
bles 80205
к-@@ 80203
heures 80191
ester@@ 80181
Кур@@ 80153
inici@@ 80150
eva 80142
ausgezeichnet 80137
約 80131
montreal 80127
chapelle 80125
gefahr@@ 80123
atr@@ 80121
9.@@ 80118
us-amerikanischer 80112
japan 80101
месте 80101
воиск 80097
версии 80093
列@@ 80093
международ@@ 80079
table 80065
poser 80063
flan@@ 80034
ιες 80032
manner 80030
linh 80006
провод@@ 80006
influence 80004
иде@@ 80000
ian@@ 79999
第三 79980
outre 79976
След 79970
百@@ 79962
group 79959
anische 79958
ø@@ 79942
Сан@@ 79933
cuad@@ 79917
種@@ 79916
pia 79910
rand@@ 79889
toren 79888
đua 79887
公 79881
從 79878
deu@@ 79871
غ 79871
menor 79862
methode 79856
ولكن 79853
sammlung 79836
дома 79836
symbol@@ 79830
мас@@ 79829
glas@@ 79820
之後 79816
muestra 79799
поч@@ 79797
datos 79790
列 79786
critique 79768
wollte 79759
тныи 79746
aff@@ 79731
projek@@ 79726
ular@@ 79714
което 79714
rub@@ 79710
wid@@ 79705
kunstler 79692
beit@@ 79678
mel 79678
rand 79665
joueurs 79662
alizacion 79627
zwischen@@ 79623
altitude 79616
utiliz@@ 79606
เมอง 79595
死 79593
sher@@ 79575
ciudades 79568
heiligen 79536
العربية 79534
cler@@ 79533
кин 79507
grafen 79506
sonder@@ 79498
ava 79480
modele 79480
mitt@@ 79450
кур@@ 79438
large 79428
electr@@ 79424
ความ@@ 79424
resultado 79421
lun@@ 79418
ie-@@ 79396
sequ@@ 79379
dicho 79374
改@@ 79351
jefe 79332
arrive 79316
mung 79286
regime 79286
心@@ 79285
виде 79273
經 79271
fik@@ 79259
дви@@ 79257
aler 79254
чил 79251
игра@@ 79240
chte 79239
trata 79237
places 79227
зат@@ 79225
mb@@ 79220
логии 79215
版 79212
liter@@ 79192
construc@@ 79180
вне@@ 79173
donnees 79149
δ@@ 79142
往 79140
estructura 79129
abteilung 79127
wehr 79112
должность 79093
信@@ 79060
пара@@ 79056
beteiligt 79055
км. 79040
familien@@ 79033
urban@@ 79029
developpe 79020
門 79019
execu@@ 78999
sent@@ 78998
senen 78989
venir 78973
火@@ 78949
иская 78947
иг@@ 78927
mobil@@ 78916
Δ@@ 78916
sollten 78908
trav@@ 78899
harmon@@ 78898
hl 78895
encar@@ 78885
nunca 78873
ever@@ 78860
sc 78837
अ@@ 78834
ager 78818
бле@@ 78818
рова@@ 78797
车 78789
kilometres 78779
стер@@ 78777
hauptsachlich 78771
evi@@ 78765
dades 78764
actions 78740
bie 78725
27@@ 78720
ph 78699
betriebs@@ 78697
sah@@ 78697
meurt 78687
tlichen 78685
street 78678
культур@@ 78635
各@@ 78592
xay 78586
habil@@ 78569
奥@@ 78566
япон@@ 78559
blieben 78555
organiz@@ 78550
ελ@@ 78549
dorfer 78542
вскои 78531
typ@@ 78526
belgique 78476
katika 78465
均 78463
воло@@ 78457
तक 78456
mik@@ 78453
gol 78452
gefunden 78451
forder@@ 78442
poliz@@ 78441
ministro 78439
chant 78420
vii 78412
tivos 78399
dite 78389
itali@@ 78373
hem 78366
stro@@ 78362
противо@@ 78362
bombar@@ 78347
вода 78347
emission 78335
astr@@ 78317
regreso 78315
rach@@ 78306
alfred 78301
仍 78288
ленных 78271
лл 78271
Александ@@ 78269
alistes 78261
technik 78259
presion 78257
antigua 78256
крас@@ 78252
chuong 78251
ственного 78242
न@@ 78237
cham@@ 78225
ms@@ 78214
золо@@ 78208
elo 78186
ow@@ 78185
nik 78162
новыи 78162
28@@ 78159
ago 78145
parte@@ 78145
завер@@ 78134
生活 78134
除 78133
εια 78129
refle@@ 78119
espacio 78108
جي@@ 78101
folgten 78099
ors 78090
arrivee 78086
medizin@@ 78084
ran 78083
esen 78072
氣@@ 78057
قي@@ 78054
osas 78043
случае 78039
ack 78007
със 78001
моло@@ 77995
pis@@ 77987
μετα 77979
championnats 77968
м-@@ 77966
lus 77961
Под@@ 77961
erb@@ 77937
tivo 77924
zeitpunkt 77922
kant@@ 77916
用@@ 77914
inf@@ 77894
中央 77892
ett@@ 77890
которым 77882
فة 77872
satz@@ 77870
1888 77863
широ@@ 77849
史@@ 77845
mussten 77842
innen 77835
schot@@ 77827
occupe 77812
管理 77810
boul@@ 77792
песни 77792
castillo 77789
africa 77778
amos 77778
дать 77777
εσ@@ 77772
arthur 77769
mittel 77768
sainte-@@ 77766
gehor@@ 77760
existen 77748
ascen@@ 77735
zurich 77735
conver@@ 77728
жением 77728
лин 77716
дои 77700
tournoi 77695
maitre 77673
organise 77661
المملكة 77654
entin 77640
зи 77623
lands 77621
afrik@@ 77614
ill 77607
neun 77605
расска@@ 77572
чения 77566
π@@ 77539
linien 77518
деревни 77516
первым 77506
alement 77502
planta 77490
без@@ 77489
bewer@@ 77485
mascul@@ 77451
ino@@ 77432
عم@@ 77426
ebene 77420
legen@@ 77402
page 77400
num@@ 77398
lyon 77390
neh@@ 77380
forderung 77372
重要 77372
ket@@ 77369
通过 77368
названием 77362
honor 77361
ient 77355
iment 77334
guar@@ 77324
ister 77316
betrug 77307
θ@@ 77300
reserve 77296
prol@@ 77280
var 77278
шел 77273
ส@@ 77268
师 77224
knapp 77220
nahme 77218
रा@@ 77207
temas 77206
Эн@@ 77199
kosten 77197
अन 77196
ersetzt 77190
design@@ 77184
verlor 77173
aves 77172
иском 77167
kin 77161
fabric@@ 77141
profesor 77138
westlichen 77130
außer@@ 77127
muhle 77127
generation 77117
Цент@@ 77108
участвовал 77097
از@@ 77092
aleman 77088
estadio 77087
ود 77080
modell 77074
thor@@ 77074
rent 77072
ыи 77072
чь 77060
Маи@@ 77053
门 77045
economique 77044
zahlreichen 77033
кс 77028
港 77027
inden 77026
staffel 77016
решение 76990
Бело@@ 76979
هناك 76977
ney 76973
heraus 76954
рак@@ 76936
reichen 76927
ارات 76914
τα@@ 76899
amerique 76879
aug@@ 76875
чка 76850
фильма 76849
tha 76846
افراد 76845
tados 76843
чки 76833
suces@@ 76824
нару@@ 76821
vent 76818
principio 76812
сезоне 76808
last@@ 76802
weih@@ 76795
asa 76794
години 76794
les-@@ 76782
problemas 76781
fasst 76762
полностью 76760
igne 76759
sive 76750
ранее 76748
當 76728
запа@@ 76726
воды 76724
ые 76724
tte 76718
campana 76710
oni 76710
turkiye 76700
هي@@ 76683
eroffnet 76682
зии 76669
nature 76659
play@@ 76655
花 76650
hauf@@ 76623
gewicht 76611
statte 76608
jardin 76599
tigt 76596
haft 76594
spek@@ 76591
वारा 76574
gelande 76570
ваются 76561
членом 76551
10.@@ 76549
ders 76524
contempor@@ 76523
werken 76509
ocup@@ 76505
zeug@@ 76505
cle@@ 76498
prin@@ 76487
iana 76483
situada 76481
imientos 76475
gt 76474
allemande 76459
pression 76443
совета 76420
gegensatz 76407
цион@@ 76384
rar@@ 76377
uhr 76374
hoan 76345
bund 76342
nuevos 76334
mitarbeiter 76328
franco@@ 76325
anciens 76320
enfrent@@ 76314
ole@@ 76314
xiii 76314
ffen 76309
Ги@@ 76307
們@@ 76304
interesse 76301
м. 76294
bras 76293
negoci@@ 76291
razas 76263
gabe 76262
besten 76248
ад@@ 76239
bestehen 76238
devenir 76231
nent 76213
hac@@ 76202
ngc 76198
vista 76196
melo@@ 76184
六 76166
матче 76161
цкого 76159
當時 76155
非 76124
soldaten 76116
το@@ 76110
baja 76090
tliche 76087
sculp@@ 76086
empereur 76083
مج@@ 76076
r. 76066
staat 76055
auftrag 76050
destac@@ 76041
jug@@ 76031
kron@@ 76020
bast@@ 75998
albums 75997
contre@@ 75990
proven@@ 75987
нен 75980
sar 75975
青@@ 75955
anzahl 75954
щие 75948
eveque 75946
τ@@ 75941
actor 75937
colombia 75933
appro@@ 75932
south 75924
υπο@@ 75920
तथा 75911
عند 75905
geschrieben 75904
modific@@ 75903
cantante 75893
полка 75893
celle-ci 75883
af 75874
вышел 75860
schlag 75851
说 75839
ddr 75837
спе@@ 75835
шо@@ 75833
郡 75815
nr. 75814
одно@@ 75812
diversos 75771
personaje 75765
ball@@ 75748
sant@@ 75747
walt 75745
soul@@ 75740
плани@@ 75740
olog@@ 75739
geor@@ 75734
luz 75729
manifest@@ 75720
возрасте 75715
Воз@@ 75713
тие 75708
llevo 75683
อก 75666
tercer 75654
вле@@ 75645
Все 75642
maz@@ 75637
воина 75622
tarihinde 75620
ordin@@ 75598
面@@ 75594
retir@@ 75592
frei 75591
साथ 75590
perteneciente 75562
schaft@@ 75551
вое@@ 75539
пос@@ 75537
ril@@ 75535
組 75511
ativ@@ 75510
chon 75508
sollen 75507
री 75504
لات 75498
analyse 75468
Тре@@ 75425
ne-@@ 75410
ologi@@ 75395
sas 75369
reven@@ 75360
renn@@ 75353
塔 75333
后@@ 75315
星@@ 75306
heiten 75304
1886 75294
каз@@ 75286
tz 75278
186@@ 75277
thuat 75273
imperio 75271
gewer@@ 75270
alternat@@ 75263
sah 75255
τ 75252
2012年 75248
rie 75248
list@@ 75246
хе@@ 75239
pratique 75234
schiffe 75223
бар@@ 75223
blanco 75220
ผ 75218
подоб@@ 75206
irse 75200
nachsten 75191
derro@@ 75183
الاسر 75177
aucune 75176
compuesto 75170
американ@@ 75167
vay 75161
verfugung 75160
意@@ 75160
بال@@ 75156
wirkte 75150
erent 75145
сан@@ 75133
fie 75109
台@@ 75109
чном 75105
iso 75102
bem@@ 75095
ены 75090
pion@@ 75065
personne 75052
الث@@ 75039
uss 75032
petr@@ 75029
lake 75027
οπου 75026
ран 75023
explic@@ 75020
цов 75011
tru@@ 75009
cke 75004
kunden 75004
responsable 74999
key@@ 74987
провинции 74984
oldugu 74981
ulos 74979
russie 74972
ските 74969
erfolgreich 74966
kreuz 74961
дол@@ 74961
bite 74957
многие 74952
первых 74944
laufe 74932
gehorten 74921
esco@@ 74908
街 74899
лер 74881
вича 74865
krieges 74863
propia 74862
tuoi 74843
рез@@ 74788
Ρ@@ 74787
يكون 74787
1850 74774
xvii 74765
wort 74763
vit 74757
eng 74737
αλ@@ 74737
過 74734
calcul@@ 74726
information 74721
box@@ 74712
валось 74709
处 74703
bietet 74696
plante 74680
Основ@@ 74672
сын 74664
reli@@ 74654
η@@ 74642
lay 74633
которую 74621
diego 74618
指@@ 74608
Β@@ 74606
勒@@ 74558
thuy 74554
сами 74554
richter 74550
ولا 74547
boden@@ 74544
водо@@ 74537
đeu 74530
яр@@ 74521
советскии 74490
sprachen 74484
круп@@ 74468
ктора 74457
信 74454
εις 74442
太 74440
arn@@ 74411
jugo 74411
جميع 74411
stadtteil 74406
territori@@ 74396
itos 74367
商 74358
ье@@ 74336
cial 74333
yeni 74299
доб@@ 74292
bildete 74285
Мин@@ 74264
此@@ 74257
lou@@ 74254
parlament@@ 74252
sc@@ 74227
глав@@ 74227
his@@ 74219
derechos 74209
armen@@ 74208
性@@ 74204
historischen 74201
dul@@ 74194
situacion 74193
livres 74169
gros@@ 74163
пат@@ 74161
liegenden 74145
博@@ 74145
schreib@@ 74126
ust 74117
法国 74113
barrio 74108
incluye 74106
inzwischen 74101
цар@@ 74091
хи 74081
足球 74066
деятельности 74057
def@@ 74050
decouvert 74042
aver@@ 74024
yar@@ 74013
desormais 74009
nait 74008
armes 74005
trip@@ 73997
сия 73974
ministerium 73967
pequeno 73967
認為 73957
commen@@ 73955
gay 73936
stas 73933
paz 73918
2013年 73912
olympiques 73903
хра@@ 73902
akti@@ 73901
шла 73882
quelle 73875
воору@@ 73869
ec 73868
volvio 73855
wissenschaft@@ 73855
朝 73854
eltern 73837
north 73831
тыс. 73826
مق@@ 73821
бое@@ 73819
quit@@ 73790
serv@@ 73790
gesamte 73775
192@@ 73753
Мон@@ 73751
современ@@ 73748
萬@@ 73745
conce@@ 73744
poten@@ 73743
народ@@ 73741
primeras 73737
jones 73733
cay 73731
يقدر 73731
defensa 73730
ζ@@ 73713
pieces 73710
inge 73706
陳@@ 73698
aw@@ 73691
keinen 73684
zonas 73665
protagon@@ 73659
cy 73642
поле 73642
dra@@ 73625
1887 73612
anten 73612
causa 73607
入@@ 73600
quang 73594
police 73582
ejer@@ 73573
euse 73554
ся@@ 73554
става 73549
feu@@ 73546
ม@@ 73533
поэ@@ 73516
sicht@@ 73512
transfer@@ 73510
regel@@ 73506
erzielte 73502
опера@@ 73493
δι@@ 73485
eden 73472
ky@@ 73458
personn@@ 73449
тых 73434
altura 73422
позже 73420
代@@ 73417
assemblee 73416
بت@@ 73409
alitat 73401
europeenne 73394
Пере@@ 73378
обнару@@ 73376
sos 73361
fo 73356
получила 73338
veya 73336
開 73333
contrat 73326
fru@@ 73308
迪@@ 73308
quatrieme 73307
战@@ 73307
capacidad 73295
1884 73294
lebten 73292
ime 73288
convo@@ 73285
herrsch@@ 73275
unterstutzung 73264
وع@@ 73264
ити@@ 73252
انية 73251
ването 73230
方@@ 73216
society 73184
общи@@ 73179
Λ@@ 73147
anges@@ 73131
gros 73115
сса@@ 73109
grap@@ 73102
abbaye 73098
proces@@ 73080
лые 73080
netz@@ 73079
wand 73076
无@@ 73076
qualifiz@@ 73066
нил 73066
regional@@ 73065
yor@@ 73059
عندما 73046
pha 73034
राज 73018
巴 73010
Был 72982
سي 72980
军@@ 72974
kind 72972
化@@ 72971
着 72967
radio@@ 72960
يوم 72959
consecu@@ 72956
desarrol@@ 72947
lik 72941
群 72937
選 72934
agon@@ 72931
品 72925
выра@@ 72924
wis@@ 72915
кты 72913
russischen 72910
nhom 72908
luu 72897
1881 72890
grafica 72871
kopf@@ 72864
ligen 72863
stol@@ 72863
starke 72852
نية 72842
edward 72840
加入 72835
vinc@@ 72831
elec@@ 72830
اغ@@ 72818
вернулся 72813
позиции 72813
ตว 72813
ιων 72811
inglaterra 72800
Среди 72798
voivo@@ 72797
isant 72793
ska 72793
获得 72793
tenian 72789
vong 72789
cultural 72786
thao 72784
ктор 72776
uta 72757
海拔 72754
八@@ 72744
katholischen 72742
sierra 72742
volk@@ 72742
щеи 72730
mission@@ 72710
oriental 72707
шен 72671
mechan@@ 72664
belegte 72661
pfe@@ 72647
anda 72643
propor@@ 72637
glu@@ 72636
埃@@ 72617
华@@ 72613
presenta 72610
язы@@ 72608
off 72601
انها 72589
passag@@ 72587
1879 72580
cado 72563
некоторых 72549
fich@@ 72534
vuelta 72531
curso 72524
sene 72507
quar@@ 72501
asociacion 72490
она@@ 72463
عل@@ 72454
taille 72451
lant 72449
закры@@ 72446
dientes 72439
書 72439
แลว 72438
ся 72422
stone 72417
граф 72416
1867 72414
forschungs@@ 72412
помощью 72400
rav@@ 72378
amor@@ 72368
особ@@ 72365
wirkung 72353
در@@ 72352
constru@@ 72348
bak@@ 72347
herren 72325
ята 72312
rek@@ 72292
ore@@ 72291
島 72286
amar@@ 72285
-de-@@ 72278
держа@@ 72278
kraf@@ 72276
brut@@ 72272
nan 72268
альбома 72233
Гра@@ 72214
salon 72202
unica 72186
huy 72177
kich 72177
希@@ 72172
dele@@ 72157
inte@@ 72139
乡 72138
игр 72135
lettres 72128
商@@ 72128
華@@ 72125
historiques 72116
archa@@ 72109
alb@@ 72107
haute 72106
zerstor@@ 72099
abschnitt 72072
positions 72061
ься 72057
zol@@ 72048
лами 72044
ον@@ 72037
得@@ 72008
oscar 72006
blatter 71999
dag@@ 71998
ologische 71997
展 71986
actuellement 71984
ца@@ 71979
tik 71975
ина 71963
ланд@@ 71963
comun 71944
вшего 71944
besuch@@ 71935
aproximadamente 71926
нового 71921
底 71918
书 71908
т. 71906
stellungen 71887
santo 71884
修@@ 71877
εμ@@ 71871
offen 71869
منذ 71862
北京 71860
воиска 71849
لاعب 71849
บ 71836
вов 71835
تكون 71831
زي@@ 71831
declare 71825
bundesliga 71822
verwal@@ 71822
чат@@ 71817
election 71813
syl@@ 71811
cru@@ 71810
1882 71807
empe@@ 71806
สามารถ 71806
camino 71795
бли@@ 71788
baron 71781
需要 71767
thi@@ 71756
بد@@ 71740
движения 71739
своем 71730
кими 71718
izacion 71716
olo@@ 71711
ace@@ 71708
verlauf 71700
общества 71698
ชน 71698
маи@@ 71680
1876 71660
anschluss 71653
система 71651
old 71646
اط@@ 71643
entscheid@@ 71632
настоя@@ 71628
ultimos 71620
plutot 71601
alan@@ 71599
операции 71585
est-a-dire 71583
выс@@ 71582
登 71555
bell@@ 71552
2001年 71540
任@@ 71537
клю@@ 71534
музыка@@ 71534
план@@ 71521
обе@@ 71514
تس@@ 71512
til 71511
gebracht 71506
arabe 71505
sap@@ 71496
derniers 71491
источ@@ 71490
мо 71473
spielzeit 71468
лина 71462
erwar@@ 71453
cantidad 71427
連@@ 71420
tron@@ 71414
近 71409
tiers 71399
الاس@@ 71395
некоторые 71391
тому 71367
мость 71366
breit@@ 71364
nich@@ 71362
шка 71359
indem 71356
licht 71356
rosa 71355
secre@@ 71353
zul@@ 71319
schwan@@ 71312
schar@@ 71311
хов 71268
mercado 71257
وان@@ 71249
gag@@ 71246
τι@@ 71243
Тер@@ 71238
pein@@ 71234
ью@@ 71233
ву 71227
wiederum 71220
عليه 71220
fisch@@ 71219
القرن 71212
мир 71189
кти@@ 71179
salz@@ 71164
music@@ 71160
مل@@ 71159
ถง 71158
circul@@ 71153
trac@@ 71148
ident@@ 71140
rechts 71133
部@@ 71133
進@@ 71131
education 71117
гео@@ 71117
elementos 71103
yas@@ 71102
artistes 71096
giong 71093
tanz@@ 71091
stu@@ 71078
asoci@@ 71076
regelmaßig 71058
hand 71055
fern 71046
организо@@ 71035
大學 71030
formado 71029
dang 71026
ını 71022
longitud 71016
provis@@ 71010
stuttgart 71009
вел 71005
aly@@ 71003
ители 70995
寺 70988
say@@ 70983
baute 70982
лями 70962
roger 70953
стеи 70953
surface 70952
maya 70950
fes 70944
spitze 70938
послед@@ 70933
1864 70924
куль@@ 70916
建@@ 70890
Они 70885
sons 70871
лях 70862
compris 70860
त@@ 70857
рам 70849
verse 70827
ft@@ 70825
堂 70825
partes 70820
初 70818
компания 70813
Ο@@ 70811
วน 70798
mary 70792
वि@@ 70792
gefang@@ 70771
betrieben 70765
gespielt 70763
др. 70761
лю 70757
weltmeisterschaften 70751
白 70731
nuevas 70719
تلك 70712
шко@@ 70709
員 70709
лыи 70698
wer 70695
boy@@ 70688
gerichts@@ 70687
sl@@ 70679
darin 70675
saus@@ 70675
黑@@ 70675
نس@@ 70668
schauspieler 70667
josef 70665
lanh 70659
fuerte 70657
konzentr@@ 70654
comun@@ 70641
возвра@@ 70639
dah@@ 70636
sure 70635
installe 70623
ouvre 70613
remplace 70608
пти@@ 70599
ग@@ 70587
年代 70584
निर 70582
nuit 70570
voy@@ 70566
majorite 70561
ngan 70559
icht 70549
mans 70549
verwand@@ 70546
2008年 70545
上海 70544
lignes 70543
principaux 70527
algo 70523
mari@@ 70523
wies@@ 70520
щи 70493
experim@@ 70490
بح@@ 70488
permettant 70481
korper 70469
murio 70456
الاست@@ 70456
designe 70414
commerce 70413
confi@@ 70398
уезда 70394
interpret@@ 70393
krist@@ 70392
gobernador 70388
grafia 70350
ид@@ 70345
rene 70318
2014年 70315
人物 70309
学@@ 70304
holz 70302
vollstandig 70291
resp@@ 70286
الاولى 70276
员 70275
кино 70263
atiques 70259
pasa 70243
francesa 70239
теат@@ 70235
verlauft 70234
ettes 70231
genes 70231
леннои 70227
alla 70223
avion 70218
reco@@ 70214
sage 70198
metro 70190
муж@@ 70187
اة 70175
Хе@@ 70165
australia 70161
tieren 70161
布 70161
arrete 70154
noche 70152
училище 70144
由于 70139
面積 70131
一般 70129
satze 70127
fusion@@ 70116
ul 70104
ouvrage 70102
наи-@@ 70102
согла@@ 70096
decidio 70094
former 70094
четыре 70090
iss@@ 70084
kaum 70060
jahres@@ 70059
1875 70049
Глав@@ 70030
воен@@ 70014
並 70013
frontera 70008
Когда 70006
casos 69999
lucha 69999
Мак@@ 69994
fam@@ 69988
管 69981
emit@@ 69974
tropas 69964
mie 69961
sammel@@ 69949
inde@@ 69945
ions@@ 69936
2016年 69927
aynı 69922
groß 69922
удалось 69917
коммуны 69900
ının 69893
spezi@@ 69889
学院 69881
處 69879
основе 69859
geant 69853
империи 69850
托@@ 69849
etats 69842
inv@@ 69834
bernard 69825
fs@@ 69825
认为 69820
gre 69805
动 69803
zentral@@ 69784
Юж@@ 69784
الا@@ 69782
schwarz@@ 69775
rebel@@ 69774
уго@@ 69772
einfluss 69749
hul@@ 69748
Ι@@ 69743
同年 69743
說 69743
sender 69732
nel@@ 69727
infr@@ 69725
teils 69721
arc@@ 69712
cuyo 69710
stammen 69692
ks@@ 69686
ativo 69668
одна 69666
тек@@ 69663
anes 69653
рим@@ 69652
1866 69635
enfant 69632
заме@@ 69632
تب@@ 69629
ση 69619
пен@@ 69618
sie@@ 69610
mail@@ 69604
物@@ 69599
Кара@@ 69598
bilder 69591
artes 69574
rugby 69573
Все@@ 69562
eut 69545
ambi@@ 69537
थी 69531
istische 69525
Ген@@ 69521
泰@@ 69493
conse@@ 69483
κα@@ 69476
จน 69475
grado 69469
вшеи 69463
straßen 69441
نادي 69436
الام@@ 69425
vau@@ 69423
地區 69413
1868 69407
видов 69407
1883 69399
lak@@ 69394
sogenannten 69391
يو@@ 69383
甲 69381
возмож@@ 69377
tera 69376
1500 69367
jahrlich 69366
дости@@ 69353
tuvieron 69343
bla@@ 69339
建立 69338
prasidenten 69330
concur@@ 69328
wahrscheinlich 69318
juni@@ 69313
pfer@@ 69309
life 69301
progres@@ 69299
breite 69295
securite 69292
سطح 69292
越 69286
kraft@@ 69280
initiative 69278
居 69278
depor@@ 69275
escribio 69258
عمل 69251
fonds 69239
имеют 69230
tax@@ 69222
bronze 69209
государственного 69203
rend 69198
clase 69189
noir 69189
cell@@ 69188
namens 69185
clasific@@ 69184
dynam@@ 69179
stadte 69176
1873 69173
text 69165
университет 69135
− 69135
evolue 69126
先@@ 69121
compo@@ 69108
ът 69103
Кан@@ 69102
э. 69096
mono@@ 69090
leon@@ 69089
щен 69089
οποιο 69075
الل@@ 69070
uberwiegend 69066
suit 69062
юж@@ 69035
2,5 69027
чин@@ 69021
gitar@@ 69016
destin@@ 69009
سن 69006
hospital 69005
tut@@ 68996
дена 68994
mano 68990
huu 68980
перешел 68971
inaugur@@ 68966
server 68965
тогда 68961
aran 68956
consiste 68938
regen@@ 68936
Пет@@ 68929
傳@@ 68929
بار@@ 68922
chiec 68921
ανα@@ 68920
1861 68918
владе@@ 68900
дивизи@@ 68899
1877 68895
ждения 68893
valeur 68892
dida 68878
Кре@@ 68878
леи@@ 68878
billboard 68872
проводи@@ 68867
bekannten 68864
piano 68862
dum@@ 68852
actividades 68851
corte 68842
opti@@ 68842
ding 68841
bres 68828
fenster 68826
ens@@ 68798
region@@ 68795
argum@@ 68762
बाद 68760
tribunal 68756
cat 68745
sobre@@ 68734
handel 68731
ellen@@ 68730
ır 68727
tue 68719
inscrit 68717
1862 68712
dritte 68711
objetivo 68703
tation 68703
fond 68698
играл 68686
ime@@ 68682
кат@@ 68675
gold 68654
senti@@ 68644
entlang 68643
seiten@@ 68627
continue 68624
presencia 68620
ковои 68606
kha 68598
dis 68592
c.@@ 68591
校@@ 68590
erfolg@@ 68588
fahrzeuge 68575
hau@@ 68571
hero@@ 68566
zahlt 68550
rt 68539
grad 68530
frem@@ 68528
прожи@@ 68526
常@@ 68517
pus 68514
стри@@ 68514
our@@ 68493
zeigen 68492
представля@@ 68491
пря@@ 68486
ieux 68478
επισης 68477
prop@@ 68476
итальян@@ 68475
accord 68467
gewin@@ 68452
baglı 68444
zahl@@ 68439
ado@@ 68438
flotte 68430
estudi@@ 68427
siete 68424
ними 68424
นำ 68417
2015年 68414
vierten 68411
техниче@@ 68409
revue 68406
жан@@ 68385
фер@@ 68385
1874 68382
สง 68380
crist@@ 68371
地方 68365
adol@@ 68363
western 68357
aliste 68354
formar 68353
frauen@@ 68353
выступа@@ 68344
англи@@ 68338
Иван 68337
elli@@ 68325
pha@@ 68322
anteil 68315
فوق 68313
preten@@ 68312
超@@ 68298
fried@@ 68294
jorge 68290
永@@ 68286
sic@@ 68247
herzog 68246
Международ@@ 68245
горо@@ 68244
影@@ 68242
少 68236
see@@ 68234
الار@@ 68234
kum@@ 68231
мия 68229
herr 68216
zusammenhang 68198
gemacht 68181
kammer 68180
系列 68176
put@@ 68175
τικα 68175
nhi 68171
森 68160
oir 68159
mindestens 68158
extension 68157
соеди@@ 68150
lehn@@ 68147
iko 68146
ologiques 68141
bic@@ 68127
turk 68103
亞 68089
regions 68086
нер 68085
бло@@ 68084
aufbau 68073
imagen 68070
unite 68067
языка 68047
neuf 68042
實@@ 68041
ganz@@ 68034
tiger 68033
sitz@@ 68026
tru 68023
рев@@ 68019
ubernommen 68015
жден@@ 68015
debut@@ 68012
義@@ 68011
кло@@ 68009
الذين 68002
elegido 68001
nel 67984
hannover 67979
马 67974
другои 67966
勒 67966
бал@@ 67952
-sur-@@ 67938
savoir 67932
pak@@ 67928
يق@@ 67924
erfolgt 67921
хар@@ 67920
过 67912
给 67909
ausschließlich 67898
amer@@ 67897
Дру@@ 67893
verwendung 67890
1863 67885
ματα 67885
писал 67884
hill 67883
plast@@ 67883
Второи 67863
masse 67849
受到 67848
cœur 67838
aza 67810
top@@ 67809
对@@ 67805
木@@ 67798
湖 67798
diz@@ 67787
защит@@ 67785
руководством 67784
فيه 67784
schwar@@ 67768
造 67768
air@@ 67764
arm@@ 67758
事件 67755
divers 67749
ният 67742
1872 67717
sever@@ 67709
меха@@ 67704
руется 67704
thema 67683
reus@@ 67680
黃@@ 67679
russ@@ 67678
συν@@ 67678
punkten 67676
riv@@ 67676
ologe 67670
филь@@ 67668
losen 67661
reprasent@@ 67654
江@@ 67654
وم 67653
russland 67652
мир@@ 67650
教育 67649
電 67642
作为 67635
ули@@ 67625
passer 67598
adam 67593
palacio 67590
oben 67576
чис@@ 67572
dresden 67570
personajes 67555
دية 67555
ible 67553
publique 67552
presque 67546
town 67541
док 67534
ray 67531
ателеи 67529
eas 67524
buts 67518
beendete 67513
تخ@@ 67512
ior@@ 67510
terres 67492
nada 67488
ประเทศ 67487
anie 67486
fundacion 67475
zus@@ 67469
жизнь 67461
kreises 67454
ori 67446
nas 67442
note 67439
考@@ 67435
战 67412
ex-@@ 67402
sencillo 67391
该@@ 67386
rosen@@ 67384
внеш@@ 67383
стер 67380
alisten 67377
ehemaliger 67377
ρο@@ 67366
избран 67353
1865 67346
lois 67346
身@@ 67338
novela 67334
handels@@ 67329
trug 67328
iii. 67321
радио@@ 67320
дерев@@ 67316
обла@@ 67314
كت@@ 67312
heißt 67293
rust@@ 67289
得到 67288
дел 67285
tere 67275
verkauf@@ 67269
designer 67264
權 67262
兰 67255
чении 67228
مص@@ 67228
вида 67221
wappen 67216
verbreit@@ 67213
gaben 67206
utilisation 67202
bildungs@@ 67198
тов@@ 67197
estime 67187
тирова@@ 67181
رات 67180
чает 67174
rim@@ 67167
вве@@ 67151
сии 67147
восстанов@@ 67134
немец@@ 67132
Север@@ 67124
mario 67121
小行星 67101
rele@@ 67085
verließ 67082
подготов@@ 67074
городского 67051
eisenbahn@@ 67047
wind@@ 67039
級 67033
moglichkeit 67030
ps@@ 67013
ischem 67007
щая 67006
学名 67003
步 67003
xii 66976
ولد 66975
гло@@ 66967
纳@@ 66958
aul@@ 66955
ρι@@ 66939
chang@@ 66934
schus@@ 66934
強@@ 66932
Ф. 66930
樂@@ 66927
бит@@ 66922
typ 66906
示 66902
หนง 66898
souten@@ 66895
automat@@ 66892
game 66884
значения 66877
支持 66877
cost@@ 66867
zerstort 66867
связан@@ 66850
فقد 66846
cop@@ 66832
amo@@ 66822
كي 66820
endete 66813
selten 66805
مد@@ 66803
nien 66798
развития 66793
Ши@@ 66790
χρονια 66770
relaciones 66769
хими@@ 66769
ocho 66765
roy@@ 66756
рок 66749
شي@@ 66739
aud 66738
запад@@ 66727
आ@@ 66725
longue 66717
collection 66714
等@@ 66704
olo 66698
นา 66691
кита@@ 66686
кую 66686
studios 66685
15-@@ 66684
верну@@ 66677
сезон 66667
ορ@@ 66661
mein@@ 66644
persona 66642
стои@@ 66641
самых 66639
ring 66634
derung 66630
لم@@ 66630
交 66630
leitete 66625
alisation 66623
heutige 66623
mathemat@@ 66623
kuh@@ 66611
атом 66609
gis@@ 66604
ण 66603
例如 66603
παρ@@ 66589
jes@@ 66588
neanmoins 66572
υ@@ 66563
dak@@ 66560
قام 66559
gott@@ 66552
нови@@ 66546
artikel 66544
ote 66532
vic 66527
ws 66517
rut@@ 66515
vik@@ 66514
oc 66512
被@@ 66511
yme 66508
表@@ 66506
lere 66500
monate 66494
頭@@ 66491
ruc@@ 66485
paar 66469
inn@@ 66453
моря 66451
чным 66450
wak@@ 66443
ku 66441
ungsp@@ 66441
precis@@ 66434
ствия 66429
nacido 66428
zeugen 66426
dicha 66417
神 66415
familien 66412
zun@@ 66402
kommission 66395
itu@@ 66389
titel@@ 66384
gesamten 66367
lement 66358
acces 66329
pequena 66327
diversas 66322
science 66319
射 66317
oise 66309
gos 66307
back 66288
постоян@@ 66278
ير@@ 66277
funf@@ 66272
sz@@ 66271
ayuda 66268
compren@@ 66266
donner 66261
anuncio 66260
fuhr 66238
aut 66234
colec@@ 66223
schlus@@ 66211
lum@@ 66194
weiß 66189
seguridad 66186
聖@@ 66182
10,@@ 66180
Χ@@ 66176
ong@@ 66172
actualidad 66168
daten 66165
sud-est 66164
bles@@ 66162
participacion 66161
galt 66160
зада@@ 66160
書@@ 66160
θει 66158
ev 66154
12,@@ 66151
keits@@ 66150
anton 66148
versammlung 66134
шее 66125
обычно 66120
الثامنة 66112
fondee 66107
ждении 66105
modern@@ 66099
nouvelle-@@ 66099
ству@@ 66059
知 66058
plantas 66057
reise 66057
fahrer 66055
ек@@ 66051
Γ@@ 66044
rong 66031
тех 66028
esposa 66015
habitu@@ 65995
Τα 65995
preußen 65993
geschaf@@ 65987
schrift@@ 65986
referencia 65979
ances 65977
работ 65965
geld 65957
全国 65955
uro 65952
software 65949
univer@@ 65939
fiz@@ 65933
العام 65930
真@@ 65930
РФ 65928
cron@@ 65927
quienes 65912
приобре@@ 65908
peintre 65904
ющее 65904
personnages 65903
expedition 65902
stoff 65900
mez@@ 65895
жать 65890
продолжа@@ 65890
籍 65873
селе@@ 65861
опублико@@ 65847
ocasiones 65843
بان 65842
концер@@ 65838
ngoi 65827
duc@@ 65819
qualite 65819
tista 65819
iano 65814
оби@@ 65806
六@@ 65763
ous 65758
清 65748
عدة 65745
thur@@ 65734
omo 65728
t. 65723
sm@@ 65721
ακ@@ 65718
росси@@ 65718
hou@@ 65709
tures 65705
verkauft 65702
евре@@ 65698
мана 65697
erbaut 65693
gele@@ 65693
issue 65676
xiv 65671
مقاطعة 65670
sitio 65663
tait 65663
papst 65654
wettbewerb 65635
grand-@@ 65632
reit@@ 65625
освобо@@ 65622
llev@@ 65606
源 65598
atur@@ 65595
lehre 65595
kiem 65591
ili 65589
negro 65584
torre 65583
dijo 65582
denomin@@ 65570
ικος 65564
高度 65563
лок 65560
件 65555
المست@@ 65553
w. 65545
Пар@@ 65544
وش@@ 65528
成功 65523
h-@@ 65522
打 65519
berufen 65516
vert 65514
academia 65513
andes 65510
tul@@ 65507
север@@ 65500
concernant 65497
anti-@@ 65493
sorte 65479
umfas@@ 65472
chia 65461
ваны 65455
ferdinand 65454
ене@@ 65451
nations 65450
sudlichen 65445
анд@@ 65434
eli 65425
зма 65423
englischen 65391
kandi@@ 65390
благодаря 65379
austr@@ 65369
изобра@@ 65362
級@@ 65361
ент@@ 65355
oi 65349
conditions 65342
erwarb 65341
variante 65334
netz 65329
chieu 65320
formas 65313
окончания 65296
циях 65296
leistungen 65293
моно@@ 65284
dagegen 65275
high 65265
iel 65264
間 65259
مست@@ 65258
preußischen 65249
最後 65241
compr@@ 65239
conduc@@ 65227
жу@@ 65220
bogen 65216
роли 65214
год@@ 65213
бур@@ 65207
gingen 65200
совер@@ 65200
priv@@ 65196
納@@ 65192
Б 65184
white 65183
umgebung 65182
mariage 65176
130 65175
конца 65173
letz@@ 65168
koyun 65166
مجموعة 65160
se-@@ 65159
ativen 65156
ingenieur 65155
負責 65154
adver@@ 65144
ati@@ 65138
дела@@ 65129
運 65127
creer 65114
itas 65110
moitie 65104
αγ@@ 65104
zwolf 65099
Москва 65099
1869 65095
peuple 65094
sang@@ 65080
plo@@ 65071
ند@@ 65071
kus 65066
image 65064
lopez 65056
веке 65056
受@@ 65048
systems 65041
williams 65041
гер@@ 65041
scho@@ 65040
требо@@ 65040
這 65040
secu@@ 65035
relations 65034
schnit@@ 65033
vereins 65022
Кра@@ 65019
коль@@ 65010
完成 65009
sud-ouest 65001
меня@@ 64998
flores 64989
problem@@ 64989
dal 64987
lleva 64982
коми@@ 64980
нин 64978
登@@ 64969
вало 64966
structure 64965
verloren 64965
const@@ 64961
certain 64952
apro@@ 64939
pablo 64934
放@@ 64922
龍@@ 64914
вод 64905
brown 64901
congreso 64899
方式 64884
总面积 64877
благо@@ 64876
under@@ 64868
conde 64860
nhiet 64851
автомоби@@ 64824
construite 64820
Запад@@ 64819
взя@@ 64815
zugleich 64806
بية 64804
dedi@@ 64801
recu 64800
Хар@@ 64797
deur 64789
wolfgang 64764
lanzado 64757
portent 64741
1830 64734
ame@@ 64726
zusammenarbeit 64726
ता 64723
προσ@@ 64720
appel 64719
eich@@ 64719
тар@@ 64713
posiciones 64710
Вол@@ 64700
закон@@ 64694
пы@@ 64687
право 64685
вшая 64678
appelle 64664
estat@@ 64664
aka 64655
большои 64642
yp@@ 64641
rudolf 64637
editions 64633
repon@@ 64630
saire 64619
latein@@ 64618
nissen 64618
ผ@@ 64610
تي 64603
produk@@ 64595
sson 64593
создан@@ 64591
такие 64586
belge 64582
185@@ 64578
quedo 64577
эт@@ 64572
aig@@ 64570
ски@@ 64567
劇 64561
reunion 64558
деи@@ 64556
gos@@ 64554
рован@@ 64554
द@@ 64542
бин@@ 64541
großere 64528
1800 64524
bia 64513
manh 64505
獲 64502
acompan@@ 64492
angaben 64491
itaire 64477
所以 64470
scott 64468
Николаи 64466
нь 64454
относится 64446
mid@@ 64418
городскои 64416
remplac@@ 64392
junge 64378
catholique 64365
sorg@@ 64364
aufnahme 64357
莱@@ 64352
welcher 64333
поэтому 64305
ninos 64295
enseignement 64294
вла@@ 64285
rechten 64284
航@@ 64282
аре@@ 64276
ति 64268
weg@@ 64267
boston 64261
miner@@ 64255
napoleon 64255
zig 64253
веду@@ 64249
amor 64247
дении 64241
turn@@ 64240
heits@@ 64238
сбор@@ 64221
смо@@ 64219
К. 64209
eit@@ 64207
tamano 64203
ifs 64202
ientes 64187
kan 64173
aller@@ 64168
九@@ 64165
memes 64151
secretaire 64136
церковь 64132
доро@@ 64106
americana 64095
ทำให 64092
road 64082
социаль@@ 64081
Затем 64078
助 64077
第 64077
isierung 64067
ministere 64064
interes 64059
фото@@ 64053
уби@@ 64037
расши@@ 64036
sujet 64034
jahrige 64027
wy@@ 64026
ecia 64024
paro@@ 64013
croix 64011
коллек@@ 64010
побед@@ 64010
evolution 63999
счита@@ 63996
chay 63991
oy 63959
щего 63943
ahnlich 63941
elisabeth 63934
real@@ 63934
sieger 63931
zones 63930
proximite 63929
тен 63919
сов@@ 63918
regie 63913
alten@@ 63903
καθως 63893
chas 63889
coordenadas 63880
vitesse 63866
станция 63866
ret 63856
atri@@ 63854
мире 63849
присут@@ 63828
ленные 63826
獎 63816
選@@ 63810
appelee 63796
catal@@ 63796
дри@@ 63796
wichtige 63790
platze 63785
alizado 63784
abe 63783
графии 63781
hoher 63780
จ 63772
武 63755
होता 63753
197@@ 63749
深@@ 63746
present 63742
uri 63732
именно 63731
共和国 63731
110 63728
argentino 63707
противника 63706
tore 63705
lour@@ 63704
justice 63701
пригла@@ 63697
maurice 63690
空 63671
艾@@ 63667
Дэ@@ 63655
حي@@ 63655
門@@ 63643
ус 63637
происходит 63629
сли 63625
nummer 63621
particul@@ 63616
团 63609
vergleich@@ 63607
gangs@@ 63597
lau 63592
debute 63576
escal@@ 63575
conclu@@ 63571
半 63563
架 63563
fragen 63553
europameister@@ 63552
trouvent 63548
darstellung 63542
steu@@ 63538
ιν@@ 63534
曼@@ 63533
beam@@ 63528
bekannte 63526
assi@@ 63525
парти@@ 63524
друг 63523
prime 63522
hagen 63514
anten@@ 63505
brand@@ 63505
medalla 63502
voyage 63499
diez 63489
lerini 63487
vorgang@@ 63481
keiten 63478
cabeza 63476
ссе@@ 63473
防@@ 63468
aufnahmen 63467
opposition 63463
eric 63462
lingen 63462
всем 63460
jackson 63447
деревне 63447
sebastian 63444
堡 63442
trage 63437
виде@@ 63433
節 63429
кол@@ 63428
академии 63426
επι@@ 63421
лат@@ 63416
chten 63404
innov@@ 63404
with 63399
сп@@ 63399
司@@ 63393
ancia 63372
arti@@ 63365
reprises 63363
schnell 63363
petits 63336
млн 63330
umge@@ 63326
durchgefuhrt 63325
француз@@ 63325
тного 63319
нар@@ 63317
1-и 63313
explor@@ 63310
Мари@@ 63309
investig@@ 63307
nun@@ 63303
nao 63300
ral@@ 63291
之后 63291
河@@ 63289
verano 63282
bestat@@ 63280
وجود 63275
Мор@@ 63272
realizar 63271
聯@@ 63269
2007年 63268
meist@@ 63262
κατα@@ 63248
entdeck@@ 63239
gira 63233
守 63228
piece 63221
приве@@ 63209
delt 63194
alist@@ 63191
cional 63189
чет@@ 63187
tang@@ 63179
заве@@ 63174
joe 63169
kaf@@ 63169
奇 63163
mich@@ 63158
ССР 63146
respon@@ 63142
zehn@@ 63130
prefer@@ 63125
1859 63120
dog@@ 63118
align 63117
转@@ 63116
muller 63115
entdeckt 63113
manus@@ 63111
protest@@ 63100
литератур@@ 63099
兰@@ 63082
lit 63070
protection 63070
horas 63067
tram@@ 63066
украин@@ 63062
freres 63060
острова 63054
armas 63048
wechsel 63046
atta@@ 63039
mitad 63033
تين 63025
ссии 63024
愛@@ 63022
conc@@ 63014
تك@@ 63004
autom@@ 62997
acti@@ 62989
铁路 62979
stro 62971
Олимпииских 62968
gebieten 62966
zor@@ 62966
客@@ 62960
दर 62956
μα@@ 62952
nacht 62949
зу 62948
musiker 62946
-1 62936
iden@@ 62927
с. 62916
龍 62914
param@@ 62898
geleg@@ 62896
minuten 62886
古 62877
lande 62874
hot 62870
representant 62870
ionen 62868
Крас@@ 62864
микро@@ 62842
anlagen 62841
tora 62823
семеиства 62821
ilio 62815
erstes 62814
系統 62808
s- 62807
aparecio 62803
fabrik 62802
siones 62801
administracion 62788
ики 62786
pie 62754
run@@ 62746
29@@ 62741
funcion@@ 62723
gau 62720
him@@ 62719
acht@@ 62712
figur 62708
presento 62694
quia 62693
рения 62693
numer@@ 62692
core@@ 62684
нович 62678
instal@@ 62665
系统 62662
متوسط 62660
kro@@ 62658
Андре@@ 62658
fonctions 62656
хом 62655
weltweit 62651
times 62650
web@@ 62646
du-@@ 62639
stunden 62639
inseln 62634
М 62627
similar 62624
awards 62611
луч@@ 62610
wochen 62578
pous@@ 62575
chel@@ 62573
reine 62564
مرة 62561
аны 62540
Рус@@ 62539
muh@@ 62538
шед@@ 62535
seitdem 62534
τος 62528
книги 62528
составляло 62522
ชอ 62521
ater@@ 62519
новые 62514
ικ@@ 62513
萬 62503
音@@ 62501
впоследствии 62497
invasion 62486
lach@@ 62480
крити@@ 62472
gebor@@ 62470
doivent 62462
ecu@@ 62460
состоит 62460
lil@@ 62451
ına 62449
podria 62447
spann@@ 62446
главным 62437
дат@@ 62434
laisse 62430
orien@@ 62424
дороги 62420
peliculas 62416
業@@ 62397
fier 62390
semana 62389
chansons 62382
هما 62375
chiem 62374
such@@ 62371
verbesser@@ 62369
atac@@ 62367
ковых 62359
coup 62349
тем@@ 62345
funcion 62338
للسكان 62321
reur 62320
autonom@@ 62311
kompon@@ 62310
ok 62303
dur 62294
подо@@ 62287
had@@ 62266
ходя@@ 62265
ед@@ 62264
国际 62259
libros 62256
ingt 62243
zeichnet 62237
рово@@ 62237
relativ 62228
Шу@@ 62226
примерно 62224
章 62220
institute 62194
duo 62191
entation 62176
anlas@@ 62164
يع@@ 62161
cuya 62157
الو@@ 62155
ตอ 62151
ruh@@ 62145
tada 62124
委员会 62120
not 62114
famili@@ 62113
fos@@ 62107
الية 62107
das@@ 62105
distancia 62102
aro@@ 62100
修 62093
gerade 62089
disney 62086
quadrat@@ 62086
od 62082
distingu@@ 62078
расположен 62076
tiques 62059
khan 62058
isen 62044
поз@@ 62042
精@@ 62017
جامعة 62006
искус@@ 61995
minutes 61990
oria 61990
lies 61985
nord-@@ 61971
alban@@ 61969
университете 61967
Мат@@ 61964
самым 61944
aufgaben 61936
bulunan 61935
isent 61931
2年 61926
ть@@ 61913
الثاني 61913
meur@@ 61908
поселение 61906
adolf 61897
值 61897
verde 61895
yl@@ 61895
mak 61884
ris 61871
raza 61865
языке 61862
iti@@ 61854
xuong 61844
ley@@ 61843
capitaine 61840
ลง 61836
affron@@ 61816
rico 61811
строитель@@ 61807
سل@@ 61807
少@@ 61804
должен 61793
tim@@ 61784
gun 61783
giu 61779
sey@@ 61777
слож@@ 61773
Тру@@ 61756
relacion@@ 61751
puestos 61749
дре@@ 61749
ayrıca 61743
اض@@ 61740
необходи@@ 61739
dispose 61731
ον 61728
hab 61722
utilisee 61722
birlikte 61720
federacion 61719
بھی 61719
kw@@ 61717
اري 61717
beck 61716
tik@@ 61709
appu@@ 61695
治@@ 61687
anza 61685
dennoch 61678
weiterer 61677
hak@@ 61666
чены 61663
пя@@ 61656
vereinigung 61638
ließen 61619
local@@ 61618
медицин@@ 61607
taron 61600
young 61585
通常 61584
稱為 61583
лев@@ 61571
полк 61562
выступал 61560
类 61540
ax 61528
служи@@ 61519
italienischen 61515
concours 61510
الخامسة 61500
مان 61495
нему 61490
ктором 61488
миро@@ 61482
1840 61477
aplic@@ 61475
проект 61444
engage 61435
Φ@@ 61432
учеб@@ 61427
matrimonio 61425
共@@ 61423
вре@@ 61421
connait 61420
anger 61410
cep@@ 61409
rios 61408
blick 61394
तो 61392
ulaire 61385
seien 61379
concer@@ 61368
relation 61367
schau@@ 61350
travail@@ 61344
частью 61342
ате@@ 61340
figure 61320
置 61317
института 61316
bibliothek 61303
ـ@@ 61302
energia 61288
ското 61288
帕@@ 61288
dienste 61287
aguas 61286
अपन 61279
exposition 61278
depute 61277
bayerischen 61271
Владимир 61267
еся 61264
weite 61263
australien 61255
technischen 61253
ادة 61252
administr@@ 61250
maxim@@ 61239
bruch@@ 61235
возможность 61231
达@@ 61228
tierras 61226
выстав@@ 61225
altar 61224
portes 61219
mediados 61201
مما 61185
veranstalt@@ 61184
conoce 61183
actuel 61180
ज@@ 61179
startete 61178
com 61160
außerhalb 61158
правитель@@ 61153
業 61136
zit@@ 61126
отношении 61124
бре@@ 61123
مي 61118
felix 61116
iales 61115
сам@@ 61115
бо 61105
secteur 61098
起@@ 61089
trabajos 61079
земли 61077
ी 61076
hein@@ 61066
ungar@@ 61066
放 61061
americains 61060
уро@@ 61037
επ@@ 61022
sistemas 61015
يقع 61014
bureau 61011
поскольку 61011
2006年 61005
製 60998
sala 60996
ابادی 60994
gig@@ 60975
οσ@@ 60959
india 60957
Бы@@ 60957
uras 60952
british 60951
pudo 60951
indien 60941
bern 60921
传@@ 60920
aktu@@ 60914
звание 60907
inhal@@ 60906
حول 60902
他們 60894
игро@@ 60890
حين 60888
funk@@ 60884
фина@@ 60883
целью 60882
постанов@@ 60876
согласно 60876
ابن 60868
端 60838
总 60821
mine 60820
ind@@ 60811
jouer 60804
produz@@ 60803
別@@ 60791
включая 60790
³ 60787
diferencia 60786
geb@@ 60774
aden@@ 60772
terror@@ 60771
prozess 60766
школу 60765
icio 60764
nacion@@ 60763
види@@ 60761
chor 60755
sad@@ 60753
сельсовета 60752
deriv@@ 60750
Ху@@ 60744
поселок 60737
مار@@ 60732
lier 60714
сро@@ 60701
спо@@ 60699
roh@@ 60692
verbun@@ 60690
1日 60689
entale 60689
tt 60680
episodio 60677
naissance 60672
artistas 60649
courant 60638
iente 60638
trabaj@@ 60634
ae@@ 60618
сред@@ 60618
ass 60616
ciales 60614
нике 60612
feu 60609
stum@@ 60607
permite 60602
nitz 60599
Ис@@ 60592
900 60588
бес@@ 60588
1年 60586
omor@@ 60584
рана 60578
жде@@ 60575
bekam 60573
valencia 60572
schuss 60551
льскии 60548
kad@@ 60536
alise 60535
respec@@ 60534
romischen 60525
班 60523
mencion@@ 60515
команда 60515
composee 60510
иские 60499
transporte 60487
unterrich@@ 60486
льского 60484
professionnel 60482
folge@@ 60480
coul@@ 60479
最高 60476
ทง 60474
д. 60472
洲 60465
памят@@ 60460
derriere 60447
olup 60440
имел 60434
maßnahmen 60431
frac@@ 60430
allemands 60421
αυτο 60421
mang@@ 60416
тол@@ 60415
bieu 60410
查@@ 60406
yap@@ 60404
vees 60395
dific@@ 60393
promotion 60392
密@@ 60392
ish@@ 60383
mejores 60373
iber@@ 60372
marc 60365
etres 60350
funktion@@ 60346
weitgehend 60344
отношения 60341
Гар@@ 60333
antoine 60324
тура 60320
meer 60314
نو@@ 60313
ave 60312
вед@@ 60307
schwer 60302
ит 60290
kampf@@ 60275
nord-est 60272
存在 60263
следу@@ 60253
язык 60253
olit@@ 60249
длин@@ 60249
кле@@ 60245
reserv@@ 60244
люб@@ 60242
pos 60241
България 60241
значение 60226
muse@@ 60220
solche 60219
言 60211
standard 60208
всеи 60206
commerci@@ 60205
hugo 60200
boy 60199
lugares 60197
oux 60196
千 60188
lug@@ 60187
iennes 60178
einheit 60176
lord 60169
рат 60166
sports 60162
sector 60160
side 60157
fix@@ 60147
rod@@ 60147
genannten 60138
sements 60127
effectue 60126
harry 60121
علم 60121
lig 60118
театра 60111
sum 60105
presentes 60082
born 60078
op 60077
Этот 60066
mostr@@ 60059
形成 60058
temple 60056
quet 60053
двиг@@ 60041
馬 60034
μεχρι 60022
produziert 60021
respecto 60018
運@@ 60015
进 59997
blas@@ 59994
دولار 59993
bedingungen 59988
patron@@ 59987
мета@@ 59986
etapa 59982
sour@@ 59980
rica 59976
quellen 59975
sis@@ 59968
играх 59967
jah@@ 59964
cara 59960
werte 59959
Вен@@ 59954
denkmal 59942
пересе@@ 59939
iß@@ 59932
reform 59927
pist@@ 59922
awa 59913
oren 59910
uruguay 59910
erschienen 59909
braun@@ 59908
siecle 59905
significa 59890
superieure 59890
早 59882
faible 59870
adı 59865
風@@ 59858
actuelle 59856
13,@@ 59854
vali@@ 59853
klassi@@ 59847
廣@@ 59844
reten 59837
nommee 59836
ecrivain 59833
کہ 59816
adul@@ 59814
情@@ 59814
markt@@ 59793
испан@@ 59793
probablement 59791
рамках 59786
camara 59781
35@@ 59775
لت 59775
langer 59768
لكرة 59756
wski 59734
leist@@ 59730
прави@@ 59728
dese@@ 59723
stucke 59717
方面 59715
остав@@ 59710
เรอง 59710
mil 59709
斯·@@ 59700
المق@@ 59689
وس 59687
省@@ 59681
要求 59675
classique 59672
เธอ 59658
guter 59656
caracteristiques 59651
mittelalter@@ 59651
test 59644
guillaume 59638
schriftsteller 59630
furst@@ 59629
اخر 59628
哥@@ 59627
тина 59619
及@@ 59614
党 59606
eck@@ 59602
lao 59602
12.@@ 59585
acu@@ 59577
時間 59569
fak@@ 59568
королев@@ 59564
nord-ouest 59549
食 59548
atrice 59535
saur@@ 59531
Первыи 59523
mond 59521
pruf@@ 59521
184@@ 59514
تد@@ 59513
чное 59507
بسبب 59504
亚 59502
anderer 59501
恩@@ 59498
diverses 59491
производства 59483
eb 59473
россиискии 59468
先 59467
ols 59461
ruta 59460
gabriel 59440
uv@@ 59437
ς 59436
suivi 59433
работе 59430
n. 59429
корот@@ 59429
digit@@ 59427
deki 59422
comptait 59419
nation 59416
osterreich@@ 59415
следующие 59407
رك@@ 59397
ก@@ 59391
bos 59382
regim@@ 59381
recensement 59379
verliehen 59376
economie 59364
الض@@ 59355
quyet 59349
misch@@ 59338
гри@@ 59330
saisons 59327
patrick 59325
arist@@ 59323
dene 59315
gaz@@ 59310
interet 59303
ambas 59299
фици@@ 59299
口@@ 59293
田@@ 59291
tives 59286
суще@@ 59286
meda@@ 59283
ано 59283
ieurs 59267
bahnho@@ 59265
longueur 59265
beste 59254
вскоре 59253
dau 59252
conference 59251
ทรง 59249
dejo 59248
v-@@ 59247
sist@@ 59237
hart@@ 59228
dium 59221
шую 59219
stellvertre@@ 59215
цве@@ 59209
schn@@ 59206
sey 59202
americano 59197
想 59186
mauer 59181
хро@@ 59172
australi@@ 59170
sieht 59168
阳 59166
offre 59162
herzog@@ 59161
kategorie 59161
報 59148
مركز 59147
dorf@@ 59145
印度 59140
hoff@@ 59136
извест@@ 59111
champions 59106
統@@ 59105
известно 59101
alim@@ 59092
enrique 59092
etudie 59091
12-@@ 59089
stau@@ 59069
джа@@ 59066
周@@ 59065
vorder@@ 59061
ολ@@ 59059
sigue 59056
αμ@@ 59054
ologico 59045
aufstieg 59040
Кла@@ 59039
poblacional 59036
становится 59033
рядом 59029
ataque 59026
creo 59022
question 59017
данных 59016
предло@@ 59012
offiz@@ 59011
laur@@ 58996
เพลง 58990
nba 58988
кт 58982
ответ@@ 58979
мента@@ 58973
parlement 58967
hren 58961
圣@@ 58950
digung 58945
спорта 58943
那 58940
един@@ 58938
avance 58937
garanti@@ 58933
ess 58908
theologie 58901
papa 58898
mour@@ 58883
dies@@ 58879
особенно 58872
colom@@ 58860
ampli@@ 58851
hitler 58844
mandat 58835
eski 58833
hingegen 58822
igo 58820
nordlichen 58816
contin@@ 58810
институт 58807
entertainment 58805
entemente 58798
нес@@ 58796
stim@@ 58795
großeren 58791
train 58788
отли@@ 58785
residen@@ 58763
vertreten 58754
Джа@@ 58746
ограни@@ 58738
tionn@@ 58736
entreprises 58734
dement 58733
bury 58726
autant 58724
духов@@ 58720
سو@@ 58712
независи@@ 58710
тые 58704
empezo 58700
geln 58696
τσ@@ 58695
школе 58685
jugadores 58674
monuments 58673
konserv@@ 58666
couleur 58663
制@@ 58661
kehr@@ 58656
στους 58655
दिया 58654
valor 58652
hergestellt 58639
риа@@ 58635
fera 58613
militaires 58611
بدا 58610
quee 58602
grundlage 58598
bill 58595
israel@@ 58595
abil@@ 58592
bistum 58587
頭 58587
champ 58585
voz 58585
梅@@ 58583
ması 58579
чик 58571
uma 58565
turnier 58557
vogel 58556
accor@@ 58552
powiat 58550
foret 58545
saison@@ 58544
集@@ 58542
граждан@@ 58519
pape 58508
considerado 58507
humanos 58498
اسم 58492
kim@@ 58491
back@@ 58489
Джо@@ 58489
кина 58485
geben@@ 58484
строи@@ 58484
kurt 58480
chs 58475
索@@ 58474
lengua 58471
senat 58471
1815 58468
beginnt 58467
публи@@ 58467
trie@@ 58454
pus@@ 58453
цвет@@ 58453
anz 58451
oli 58448
успе@@ 58441
hoch 58439
rusia 58432
vorhanden 58427
caracter 58425
bracht 58424
同时 58416
afec@@ 58413
ª 58412
苏@@ 58406
cos@@ 58405
工程 58384
caracteristicas 58369
Италии 58368
baroc@@ 58366
произве@@ 58363
ствие 58359
reempl@@ 58355
adquir@@ 58349
pfar@@ 58341
aven@@ 58334
distinc@@ 58333
junior 58332
aner 58327
dichte 58327
lique 58319
sites 58317
завод 58317
phon@@ 58301
usage 58299
jet@@ 58286
ouverture 58281
Аи@@ 58276
cere@@ 58271
arena 58265
kern@@ 58263
element 58261
知@@ 58259
pent@@ 58257
耶@@ 58255
chris 58254
деятельность 58254
anth@@ 58253
множество 58245
стен@@ 58242
неболь@@ 58241
herbst 58236
orleans 58234
включа@@ 58232
gepragt 58207
vuel@@ 58204
ausgetragen 58202
落 58200
1849 58198
choix 58198
alberto 58194
kri@@ 58192
standigen 58184
geheim@@ 58175
1856 58172
handel@@ 58167
Це@@ 58157
математи@@ 58153
формы 58142
сторон@@ 58141
баш@@ 58139
elf 58135
然而 58129
практи@@ 58118
kes 58117
elabor@@ 58116
colegio 58101
conserve 58097
引@@ 58096
пехот@@ 58091
evenements 58085
ствует 58079
blat@@ 58078
ане 58076
legende 58073
ствовал 58071
14,@@ 58057
чии 58049
ам@@ 58044
जन 58031
код 58021
Чу@@ 58020
ilo 58012
tradu@@ 58012
textes 58000
3000 57996
consiguio 57986
isi@@ 57983
類 57980
gelegenen 57976
rot 57976
Эр@@ 57969
премии 57967
11,@@ 57962
teste 57960
ково 57960
жел@@ 57959
計@@ 57949
trait 57945
unge@@ 57939
分布 57935
возможно 57929
acciones 57927
สวน 57921
uren 57908
хан@@ 57906
0年 57900
gb 57899
близ@@ 57899
крат@@ 57894
ruf@@ 57891
ref 57890
commande 57882
edo 57867
经 57860
expres@@ 57851
sogenannte 57849
вызва@@ 57847
theater@@ 57831
челове@@ 57829
العايلات 57826
ствуют 57821
ther 57818
enberg 57815
tableau 57815
Од@@ 57815
Вели@@ 57810
κ 57799
разру@@ 57797
schl@@ 57790
tigkeit 57786
πολη 57785
款 57778
另外 57773
lago 57771
в. 57770
李@@ 57762
decouverte 57761
щении 57756
amis 57750
gewinnen 57745
comision 57741
Хи@@ 57738
neues 57733
importancia 57732
карьеру 57729
مصر 57728
charakter@@ 57727
obtenir 57726
spit@@ 57725
nichts 57723
11.@@ 57722
gs@@ 57719
kins 57717
160 57715
священ@@ 57709
economia 57703
regisseur 57702
Пав@@ 57698
olas 57690
專@@ 57687
份 57682
управля@@ 57672
лон@@ 57671
表 57662
blancos 57656
video@@ 57651
کر 57645
vertei@@ 57639
municip@@ 57636
hafen 57633
popular@@ 57632
anime 57630
gehalten 57627
seront 57620
шло 57620
rus 57619
rees 57614
kay@@ 57613
viii 57611
reiche 57610
galerie 57605
προς 57604
tuan 57598
ую 57590
ственные 57585
Đe 57583
crim@@ 57576
cht@@ 57567
總 57562
ظ@@ 57547
стран 57544
johnson 57538
Я 57527
roten 57517
dokum@@ 57511
tomo 57501
jul@@ 57488
niedri@@ 57478
получа@@ 57466
известен 57463
нат 57460
adri@@ 57456
населенных 57454
較@@ 57453
sax@@ 57446
поддержи@@ 57445
присоеди@@ 57444
ciencia 57440
montana 57430
zar 57429
juste 57425
eci@@ 57422
directement 57421
actriz 57406
pec@@ 57404
eten@@ 57397
Α 57396
verfugt 57389
другими 57387
baden 57381
colle@@ 57374
iels 57368
eclip@@ 57362
вка 57358
षत 57351
ocur@@ 57336
этим 57335
schwester 57329
属于 57328
eses 57327
波 57326
alistas 57318
тера 57315
fines 57314
θεση 57309
entsprechend 57308
nordosten 57308
concre@@ 57302
bob 57300
корпуса 57298
سب@@ 57297
low@@ 57290
مية 57288
liebe 57287
blue 57277
живо@@ 57275
電影 57264
generalmente 57261
雷 57260
neuer 57259
fondation 57257
kathol@@ 57252
nischen 57252
nga 57244
comienza 57241
than@@ 57237
字@@ 57234
grim@@ 57224
over 57224
льскои 57223
euro@@ 57220
gestaltung 57218
schauspiel@@ 57217
daten@@ 57214
具有 57207
atives 57206
这个 57200
фильме 57193
erhalt 57182
anus 57163
ı@@ 57162
independencia 57160
oue 57160
带 57158
memor@@ 57147
Если 57147
125@@ 57144
geometr@@ 57144
располага@@ 57139
excep@@ 57125
yaz@@ 57121
ателем 57120
them 57113
dunya 57108
exac@@ 57104
縣@@ 57102
μετα@@ 57101
eber@@ 57094
spanien 57093
insec@@ 57092
歌 57079
loire 57069
Дан@@ 57068
illinois 57064
sodass 57059
вия 57054
geord@@ 57048
geleitet 57039
根 57039
durchschnit@@ 57038
integre 57038
tiv 57034
Сто@@ 57031
सर 57026
Ниж@@ 57004
alexandre 57000
statut 56993
jahrzehn@@ 56992
arro@@ 56980
beschaf@@ 56977
geworden 56975
influencia 56974
представляет 56973
parents 56972
wilhel@@ 56972
calidad 56971
目@@ 56962
рин 56956
italiano 56946
бело@@ 56940
лова 56933
راء 56927
cede 56919
dus@@ 56918
مواليد 56918
практически 56917
rol 56912
aber@@ 56906
ider 56902
techniques 56892
гене@@ 56892
мать 56886
warts 56881
honor@@ 56865
Ком@@ 56865
gruppen@@ 56864
sources 56857
minim@@ 56851
beweg@@ 56850
宣@@ 56844
проекта 56838
世纪 56832
athle@@ 56830
цеи 56826
пе 56822
trieb@@ 56819
wissenschaftlichen 56813
волости 56812
royale 56804
devint 56803
tero 56792
вен 56791
theat@@ 56788
nhap 56785
amerikan@@ 56781
attribu@@ 56780
рес@@ 56778
他@@ 56777
vaters 56773
ια@@ 56768
च@@ 56768
ряда 56766
тора 56762
рина 56761
batiments 56758
стандар@@ 56755
onlyinclude 56753
萨@@ 56743
мини@@ 56742
ligi 56727
emente 56716
gebildet 56713
pied 56705
Щ@@ 56690
خ 56689
لعب 56686
帝 56684
управ@@ 56680
deportivo 56678
ตาม 56678
грани@@ 56672
microsoft 56671
strah@@ 56670
力@@ 56667
ciencias 56664
球@@ 56645
государства 56643
wachsen 56642
seigneur 56638
طريق 56637
dessin@@ 56631
grafico 56628
sachsen 56622
ह@@ 56621
esos 56608
tadas 56608
рите 56606
alit@@ 56596
sarbe@@ 56595
detec@@ 56591
емыи 56589
Тои 56588
जा 56588
elite 56586
schied 56575
non-@@ 56571
itet 56562
pacifico 56560
nda 56552
danemark 56550
應 56550
ото@@ 56547
herstellung 56534
岛 56529
jugend 56524
甲@@ 56512
ली 56494
спор@@ 56485
ด@@ 56475
proclam@@ 56473
лес@@ 56472
армия 56464
decede 56463
前往 56462
master 56460
ferme 56458
щена 56457
Несмотря 56455
agent 56451
detru@@ 56450
brian 56436
neutr@@ 56433
aye 56431
يس@@ 56428
trag 56423
selection 56421
ральныи 56418
стои 56414
elem@@ 56413
sicher@@ 56413
島@@ 56411
sprach 56396
180 56388
unbe@@ 56385
hinzu 56383
k. 56383
torno 56378
وان 56374
buena 56368
spd 56368
ออก 56366
даль@@ 56364
лож@@ 56363
повы@@ 56363
هـ 56360
ments 56357
gemaß 56353
isol@@ 56351
mess@@ 56351
puissance 56342
hiver 56340
enthalten 56337
aufgabe 56332
leistungs@@ 56330
comercial 56319
اف 56312
vertrie@@ 56310
接 56309
геро@@ 56308
مجموعی 56308
artiste 56307
1857 56305
xu 56305
Красно@@ 56305
office 56300
unidad 56296
haut@@ 56293
schu@@ 56286
pc 56280
taf@@ 56279
школа 56276
architecture 56262
первые 56252
vois@@ 56242
транспор@@ 56234
charts 56233
ausstellung 56232
opfer 56230
короля 56229
-то 56225
gesam@@ 56216
pasado 56216
prueba 56216
effec@@ 56210
dispute 56203
jede 56195
occu@@ 56179
yon 56179
gonzalez 56175
хов@@ 56172
winter 56149
junta 56135
het 56134
反 56132
署 56132
тно 56130
guter@@ 56108
abgeord@@ 56101
ayo 56101
sprech@@ 56100
камен@@ 56095
dert 56077
пор 56073
тин 56071
teams 56070
ota 56066
langues 56062
system@@ 56057
greif@@ 56051
اذا 56051
alites 56048
土@@ 56047
capitan 56045
ago@@ 56043
moteur 56040
wertung 56034
japonais 56032
используется 56031
москов@@ 56031
geteilt 56024
goc 56023
sade 56022
consist@@ 56019
жела@@ 56017
гия 56012
figuren 56005
quel 55990
北部 55988
gy@@ 55980
ouvert 55978
bahnen 55965
رب@@ 55964
firme 55950
للا@@ 55950
2017年 55949
itions 55948
juden 55942
sali@@ 55937
neum@@ 55935
разви@@ 55930
umfang@@ 55923
rir 55911
мнению 55908
постро@@ 55906
sy 55904
исто@@ 55875
اصل 55845
ath 55844
проис@@ 55842
ufer 55838
linge 55832
都@@ 55831
hauteur 55827
fase 55825
consac@@ 55810
коне@@ 55809
soutien 55806
ванию 55789
สราง 55782
ковского 55766
treffen 55764
куп@@ 55764
jeweiligen 55763
nationalen 55762
gebir@@ 55760
18-@@ 55750
gegrundeten 55746
bra@@ 55736
weiht 55734
fox 55726
140 55721
وي 55719
cus@@ 55715
службу 55708
赛 55699
وذلك 55684
запре@@ 55679
состав@@ 55679
無 55669
皮@@ 55669
头 55662
medida 55660
salv@@ 55660
град@@ 55658
鲁@@ 55653
benef@@ 55650
двумя 55648
lider 55647
großbritannien 55646
แบบ 55636
периода 55635
ing-@@ 55626
mehrfach 55619
arlo 55608
сентябре 55606
provin@@ 55589
marca 55588
ана 55583
граф@@ 55582
unmittelbar 55581
发 55581
pian@@ 55579
weis 55570
kaz@@ 55569
wei@@ 55568
gobern@@ 55565
семьи 55561
РСФСР 55559
shire 55558
brochen 55557
編@@ 55555
足@@ 55555
struktur 55553
xo 55551
alisme 55549
drit@@ 55547
ise@@ 55547
gesehen 55545
цкои 55541
soldats 55540
weltkriegs 55530
renom@@ 55523
saar@@ 55520
unterstutzt 55502
عد@@ 55502
фин@@ 55489
انا 55488
vienne 55487
тации 55485
種 55479
salvador 55477
गाव 55471
kong 55464
gras@@ 55453
zwei@@ 55450
Верховного 55450
infanterie 55445
disco@@ 55443
noms 55441
dig 55439
munster 55439
ट@@ 55430
当 55426
zuge@@ 55425
奇@@ 55425
uh@@ 55423
eingefuhrt 55420
rodriguez 55419
Д. 55415
показа@@ 55412
sn@@ 55408
gmina 55405
影 55405
сах 55404
Занимает 55399
loin 55389
milan 55386
doctor@@ 55382
且 55372
destru@@ 55367
glie@@ 55363
reser@@ 55352
formul@@ 55342
kammer@@ 55325
ajes 55317
anc@@ 55315
repr@@ 55309
2005年 55308
asie 55302
entraineur 55302
đam 55297
εχουν 55296
المص@@ 55294
bbc 55289
start 55286
ابو 55284
bte 55283
andreas 55280
krank@@ 55266
hermanos 55258
ulation 55247
regionale 55239
цията 55232
eils 55225
ilcesine 55221
naval 55205
siv@@ 55200
เกด 55200
griech@@ 55196
التابعة 55195
sudwesten 55194
dungs@@ 55193
barkeit 55191
един 55183
сли@@ 55183
кроме 55179
fig@@ 55173
rendre 55171
espec@@ 55168
katholische 55168
bahnstrecke 55167
担任 55165
Ак@@ 55163
erde 55155
fuente 55138
mike 55138
失@@ 55137
salud 55131
besitzer 55125
cale 55122
силы 55119
gagne 55115
oxy@@ 55114
принадлежа@@ 55113
pourrait 55112
dirigida 55111
electron@@ 55096
lichkeiten 55094
bei@@ 55089
clin@@ 55086
твор@@ 55083
menudo 55082
demokrat@@ 55080
ленныи 55072
suff@@ 55071
esas 55070
tagen 55066
القدم 55064
escritor 55061
independiente 55060
находился 55050
ض 55047
дня 55043
realidad 55040
guil@@ 55037
flach@@ 55029
suivantes 55026
ash@@ 55021
rah@@ 55021
decrit 55018
Кры@@ 55017
doctor 55013
fem@@ 55008
thes@@ 55003
остро@@ 55003
тран@@ 54997
гои 54995
помощи 54994
做 54986
contrato 54985
汉@@ 54985
hab@@ 54984
送 54983
aco@@ 54981
умер 54964
beschrieben 54952
verbin@@ 54948
тные 54945
design 54938
दी 54937
bases 54925
емые 54922
expul@@ 54915
erklar@@ 54909
отве@@ 54909
утвер@@ 54905
revolucion 54900
يين 54876
kav@@ 54860
hell@@ 54858
plantes 54857
disponible 54856
нюю 54852
น@@ 54839
zeichnung 54837
отра@@ 54837
green 54833
dach 54830
nombres 54828
нал 54827
cesar 54826
mondial 54825
魚 54825
emple@@ 54823
dong 54814
suspen@@ 54808
allein 54806
支 54801
德国 54799
dernieres 54794
m.@@ 54782
lait 54767
کیا 54761
播 54741
قال 54740
церков@@ 54737
dej@@ 54734
مر 54734
снова 54731
bedeutet 54717
преде@@ 54709
australie 54703
econom@@ 54684
operacion 54674
develop@@ 54672
revient 54672
тела 54671
linken 54669
αι@@ 54668
reprend 54666
摩@@ 54659
演@@ 54655
личе@@ 54653
toa 54651
川 54650
florida 54648
marques 54648
.com 54645
eingestellt 54644
evalu@@ 54639
fruheren 54635
γκ@@ 54632
cafe 54623
массо@@ 54621
мах 54614
因@@ 54614
grade 54608
здание 54605
女性 54605
kritik 54600
Т 54597
change 54594
должности 54594
line@@ 54590
применя@@ 54587
2-и 54569
始 54561
искусства 54560
zweiter 54556
града 54555
取得 54551
lider@@ 54537
sheim 54528
black@@ 54524
categorie 54522
nong 54521
ину 54518
Тур@@ 54517
stel@@ 54515
zuerst 54512
utzt 54502
polizei 54497
μεταξυ 54496
amour 54495
ausgabe 54495
mals 54495
minutos 54482
handlung 54479
يبلغ 54457
другим 54455
manos 54436
dens 54435
дя@@ 54433
existence 54432
offiziell 54419
ده 54419
parten@@ 54417
konz@@ 54411
identific@@ 54407
yn 54390
劇@@ 54390
ark@@ 54389
пов 54386
yam@@ 54385
pose 54381
estr@@ 54380
management 54372
thy@@ 54367
解 54366
ческими 54364
industria 54350
stadion 54346
境 54341
constitution 54340
non@@ 54329
burgo 54328
条 54328
може 54324
دوار 54323
erho@@ 54320
chacun 54317
frontiere 54309
1970er 54294
Московскои 54294
eleves 54293
wissen 54292
unu 54290
ix@@ 54285
hav@@ 54281
薩@@ 54278
goles 54274
gottes@@ 54274
служил 54273
بط@@ 54270
первом 54264
pais@@ 54254
verletz@@ 54253
voul@@ 54249
вор@@ 54235
essentiellement 54232
серебря@@ 54231
ката@@ 54218
漢@@ 54209
отца 54205
cambi@@ 54201
crat@@ 54199
брат 54199
einheiten 54192
учен@@ 54192
aparicion 54170
友 54170
euros 54166
wohl@@ 54158
tiennent 54152
berge 54148
旗 54148
профессор 54145
ضمن 54142
мае 54134
teoria 54133
cuba 54132
candidat@@ 54131
проте@@ 54125
业 54125
digen 54122
comm@@ 54111
esprit 54106
权 54105
stern@@ 54094
nische 54093
есте@@ 54089
herren@@ 54082
iller 54082
nak@@ 54082
verlassen 54078
處@@ 54077
restos 54074
八 54073
verwen@@ 54071
жители 54071
kilometros 54069
songs 54068
木 54068
1858 54066
reten@@ 54065
参加 54065
иногда 54062
erschein@@ 54057
sv 54053
wuch@@ 54052
vous 54046
pflich@@ 54036
correc@@ 54030
logr@@ 54030
trak@@ 54024
columbia 54023
празд@@ 54018
iga 54016
onal 54010
разработ@@ 54009
global 54004
todavia 53999
conseiller 53997
tente 53997
百 53997
середине 53988
losung 53981
bro 53979
lek@@ 53979
longtemps 53977
1854 53971
templo 53968
單@@ 53962
geschwindigkeit 53958
continuo 53951
ries@@ 53944
werner 53934
sai 53922
http 53920
condiciones 53916
brand 53913
1855 53901
hersteller 53897
libertad 53896
λι@@ 53880
problemes 53879
變@@ 53878
puente 53875
بات 53875
ergebnis 53863
royaume-uni 53857
著名 53853
verhaltnis 53849
nordwesten 53844
отличие 53825
ohio 53824
рию 53820
freund@@ 53814
intento 53811
学校 53807
orch@@ 53806
hochsten 53797
sentido 53793
Бур@@ 53786
следо@@ 53786
.000 53785
halten@@ 53784
policia 53779
принима@@ 53778
ında 53775
七@@ 53765
英國 53764
oberen 53763
дли@@ 53762
зыва@@ 53761
resul@@ 53760
lom@@ 53759
geber 53754
acceso 53753
envi@@ 53752
Ос@@ 53752
游戏 53738
acces@@ 53737
konzer@@ 53736
ivement 53733
сыграл 53731
derzeit 53730
mitgliedern 53725
富@@ 53725
жили 53723
ucken 53722
пи 53719
ya@@ 53707
iento 53703
capac@@ 53701
starken 53701
tech@@ 53693
центром 53693
doc@@ 53686
entrada 53684
وار@@ 53682
manche 53678
multiples 53669
лист@@ 53669
一個 53661
traf 53660
fallt 53649
动@@ 53647
ρα@@ 53640
ว@@ 53626
свет@@ 53618
команду 53616
因为 53609
حوالي 53600
разных 53598
paris@@ 53597
filmen 53592
cuarto 53584
sko@@ 53583
弗@@ 53582
αυτη 53580
academy 53578
andre@@ 53575
юго-восто@@ 53575
вано 53573
届 53567
實 53559
konigreich 53557
мало@@ 53556
จด 53553
interven@@ 53549
achten 53546
пути 53546
dienen 53540
adlı 53537
numerosos 53536
отец 53526
steve 53525
flugel 53519
grave 53517
leo 53516
jovenes 53509
diplome 53508
ef 53506
деятель 53498
arbeitung 53496
boot 53484
außer 53482
ए@@ 53474
Л. 53471
Тем 53459
бил 53457
quent 53455
anders 53451
nationalsozi@@ 53451
objekte 53451
تو 53449
bren@@ 53430
mayores 53429
đich 53423
награ@@ 53423
more 53419
русскии 53417
pron@@ 53405
持 53393
تا 53392
внутрен@@ 53387
bezirks@@ 53380
composit@@ 53379
vertrag@@ 53369
kanad@@ 53368
steine 53352
uer@@ 53351
kanada 53350
setzungen 53349
kho 53348
arche@@ 53344
ει@@ 53343
unun 53342
cordoba 53341
geschutz@@ 53331
擊@@ 53329
建筑 53328
niederlage 53324
Через 53319
nham 53313
всегда 53309
награжден 53306
schmi@@ 53304
нить 53302
contiene 53289
ड@@ 53287
الحرب 53286
спортив@@ 53278
первую 53277
resistance 53276
dynastie 53273
يب 53259
asi@@ 53254
polic@@ 53247
ите@@ 53246
krimin@@ 53226
mitteln 53225
таким 53224
francis 53222
圖@@ 53222
Зе@@ 53217
组 53215
северо-восто@@ 53213
解@@ 53205
tages@@ 53194
marie-@@ 53186
3年 53184
redak@@ 53183
eventu@@ 53177
roy 53176
quelque 53175
реда@@ 53167
莫@@ 53162
мени@@ 53159
Гре@@ 53157
propiedad 53153
ватель@@ 53152
Пра@@ 53147
resist@@ 53138
جن@@ 53131
зен@@ 53123
дву@@ 53122
confer@@ 53113
physique 53110
造成 53108
b.@@ 53098
โ@@ 53097
toma 53095
Бра@@ 53093
fil 53090
停@@ 53085
comunicacion 53082
alar@@ 53080
alia 53079
bundesstaat 53079
drang@@ 53078
半@@ 53072
ตอง 53071
дение 53068
arme 53064
增@@ 53064
форми@@ 53060
utnant 53052
lieux 53048
physi@@ 53046
laufbahn 53043
francaises 53041
manten@@ 53041
nten 53041
裝@@ 53039
Александра 53038
вата 53029
chu@@ 53027
nad@@ 53025
bereit@@ 53022
sudosten 53018
iyi 53016
grenzen 53008
mieux 53006
这些 53004
वा@@ 53003
reno@@ 53001
tw@@ 52991
bras@@ 52987
进@@ 52969
Михаил 52965
الاو@@ 52965
schweden 52961
дам 52958
管轄 52958
исполня@@ 52952
pfarr@@ 52949
蘭 52942
прото@@ 52939
personen@@ 52935
低 52926
drama 52925
reina 52922
extr@@ 52921
лла 52915
graphe 52911
Пред@@ 52911
bassin 52910
изо@@ 52902
начало 52901
dusseldorf 52895
國際 52886
đung 52870
spati@@ 52865
занял 52865
vide@@ 52864
bien@@ 52861
具 52861
dimen@@ 52854
padres 52852
vol 52852
sun 52842
felipe 52838
casas 52835
rada 52818
somme 52817
Пор@@ 52815
dores 52814
person 52803
ηση 52801
bremen 52798
mittlerweile 52798
pin 52791
tony 52788
kw 52787
蘇@@ 52781
mittels 52779
officiellement 52777
begleit@@ 52772
資@@ 52772
paix 52770
fund@@ 52768
августе 52762
ξ@@ 52756
Д 52753
alismo 52751
mom@@ 52751
crear 52750
sanger 52750
befest@@ 52743
mision 52740
wies 52740
осуществ@@ 52736
stock@@ 52732
عليها 52713
devait 52708
ingresos 52706
saglık 52700
дополнитель@@ 52699
betrach@@ 52697
maßig 52693
次@@ 52692
lung@@ 52687
долларов 52687
старо@@ 52684
мости 52682
воздуш@@ 52679
accompag@@ 52667
mir 52666
مه@@ 52659
ilien 52654
ting 52648
statten 52643
Рабо@@ 52639
буду@@ 52635
aran@@ 52632
Росси@@ 52632
friedrich@@ 52631
vergleich 52629
ระหวาง 52627
auseinander@@ 52626
рование 52620
nouvel 52619
sud-@@ 52615
мена 52609
shar@@ 52602
scher 52598
уча@@ 52584
militares 52583
raume 52580
衛@@ 52578
wan 52575
mait@@ 52572
1980er 52570
creado 52568
oth@@ 52568
发现 52567
المنطقة 52562
组织 52558
изи@@ 52550
нина 52548
amsterdam 52546
ฟ 52545
льными 52536
domingo 52525
lima 52525
初@@ 52523
расположена 52520
счет 52518
стату@@ 52515
بني 52503
phone 52502
автор 52501
veran@@ 52499
experience 52496
кции 52494
geschlagen 52490
productos 52490
worth 52485
декабре 52482
speich@@ 52479
historico 52477
sœur 52475
reduc@@ 52471
congres 52469
ล@@ 52469
monument 52465
epreuve 52448
completo 52437
hoh@@ 52430
العمل 52430
возник@@ 52418
январе 52411
русскои 52404
точки 52395
hierbei 52388
ер 52382
uberliefer@@ 52374
رت 52372
марте 52366
forman 52364
πιο 52361
报 52359
onyme 52355
октябре 52354
pach@@ 52348
сса 52347
庄 52336
temo@@ 52334
цем 52329
1812 52327
эту 52327
сс 52326
strom 52319
icus 52316
nage 52316
veroffentlichung 52316
伊 52314
visu@@ 52313
empresas 52311
importance 52294
поступил 52294
fritz 52292
perez 52287
合作 52284
samuel 52269
ляр@@ 52262
125 52261
interprete 52259
lungen 52257
Зна@@ 52255
ена 52248
اري@@ 52237
Ио@@ 52234
развитие 52234
auteurs 52233
如果 52233
州@@ 52233
lycee 52228
قرية 52224
Сте@@ 52220
ху 52215
ablement 52214
stre 52211
squ@@ 52206
freie 52202
areas 52200
бург 52196
ases@@ 52191
remarqu@@ 52187
anta 52183
1814 52178
farben 52176
schatz@@ 52173
接受 52171
1852 52170
двор@@ 52170
legung 52165
combate 52145
应 52143
landtag@@ 52142
альбо@@ 52137
свобод@@ 52135
arriere 52131
station@@ 52126
zustand 52125
gaz 52119
Ст@@ 52118
digital 52112
บน 52109
региона@@ 52108
vize@@ 52103
brief@@ 52102
khai 52102
peru@@ 52097
رييس 52097
чена 52083
exploitation 52076
1851 52075
зва@@ 52072
unterricht 52070
pueblos 52062
sociale 52058
इन 52058
posent 52054
theit 52054
nuevamente 52039
recherches 52036
these 52029
εγινε 52025
wir 52021
進行 52020
atica 52018
реаль@@ 52011
bonn 52009
tombe 52008
lua 52005
meilleure 52004
allgemeinen 51990
architecte 51987
參@@ 51986
gap 51980
recur@@ 51963
kurze 51959
沒 51959
utiliza 51953
fließt 51945
annte 51944
lettre 51943
ced@@ 51939
lık 51937
hervor 51927
стат@@ 51927
ците 51920
кафед@@ 51915
escu@@ 51908
жено 51908
dc 51897
scientifique 51896
limites 51888
вместо 51877
quis@@ 51863
tische 51853
клу@@ 51850
cks 51846
gesich@@ 51841
Дон@@ 51839
komman@@ 51836
democrat@@ 51833
format 51833
правления 51829
standig 51821
دخل 51821
русского 51816
ници 51810
нор@@ 51809
Р 51805
рон 51784
احمد 51781
али@@ 51779
permettent 51771
εγ@@ 51769
conoc@@ 51767
vera 51765
Не 51757
defaite 51756
每@@ 51756
kamer@@ 51754
cal 51750
traduc@@ 51748
ova 51743
pilo@@ 51739
sekretar 51739
disposit@@ 51732
aero@@ 51725
tipos 51725
haute-@@ 51724
litterature 51718
создания 51713
πρωτη 51712
кто 51704
семеиство 51699
entspricht 51698
aue 51692
yle 51682
oni@@ 51675
animales 51674
stitu@@ 51666
мент 51666
عية 51666
verantwortlich 51663
expansion 51652
ร@@ 51652
alistischen 51645
英国 51637
該國 51635
pli@@ 51630
ston 51630
iee 51624
besonder@@ 51623
контракт 51620
стрел@@ 51619
digte 51615
selb@@ 51605
revi@@ 51604
clim@@ 51601
ede@@ 51598
лка 51596
ειας 51591
Сан-@@ 51582
لح@@ 51573
voc@@ 51570
comprom@@ 51568
движение 51567
fuentes 51561
kanal 51557
luther@@ 51549
teles@@ 51548
plem@@ 51546
ايية 51546
λ 51545
此外 51540
grad@@ 51531
9年 51530
theo@@ 51517
эта 51516
主席 51511
caz@@ 51504
oz 51503
figura 51499
rea 51499
einfuhrung 51498
tio 51496
ieures 51493
monum@@ 51491
staates 51491
rafael 51490
ortes 51483
() 51479
seccion 51478
spre@@ 51478
където 51475
kran@@ 51472
см 51471
lem 51466
мента 51460
植物 51459
reper@@ 51455
τικες 51451
juifs 51450
ve-@@ 51444
ziehen 51442
jedes 51437
ire@@ 51436
除了 51432
larını 51431
espagnol 51416
judischen 51409
flughafen 51408
المت@@ 51403
eder@@ 51402
fi 51401
hispan@@ 51401
izquierda 51390
stimm@@ 51390
ново 51386
設@@ 51379
vis 51378
المج@@ 51378
commandant 51377
ede 51370
rive 51363
yak@@ 51363
aa 51348
должны 51348
bewohner 51346
当时 51344
reis@@ 51338
prus@@ 51329
九 51324
hochste 51319
領@@ 51297
จงหวด 51295
деиствии 51294
taire 51293
kommand@@ 51285
劉@@ 51281
wenigen 51280
comman@@ 51268
sinne 51266
rist@@ 51264
Народ@@ 51260
originaire 51259
brigade 51251
utilis@@ 51251
المش@@ 51243
maschinen 51242
biens 51240
fernandez 51240
ความ 51240
ذات 51237
constitucion 51231
الامريكية 51228
кни@@ 51225
ungarn 51221
avent@@ 51220
themen 51219
зеле@@ 51212
burg-@@ 51207
bildeten 51201
wettbewer@@ 51192
heimer 51190
construire 51185
kindern 51171
escrito 51167
schnitt 51166
المس@@ 51166
觀@@ 51165
نظام 51163
post 51161
वह 51156
intitule 51151
дены 51140
objets 51139
gewohn@@ 51137
اية 51131
архи@@ 51128
поле@@ 51128
ा 51127
independance 51120
provincial 51120
оборо@@ 51113
七 51109
рио@@ 51106
preuß@@ 51104
臺灣 51098
کاونٹی 51095
marc@@ 51088
relev@@ 51087
料 51087
гла 51086
indique 51084
ortschaft 51082
paral@@ 51062
вшиися 51059
dibu@@ 51055
покры@@ 51054
oster@@ 51052
medizin 51048
experiment@@ 51045
الاخ@@ 51044
encontrar 51037
فو@@ 51036
ves@@ 51030
nombr@@ 51028
grac@@ 51026
вли@@ 51026
那@@ 51025
1960er 51022
排@@ 51015
时@@ 51010
角色 51010
发展 51009
этому 51004
realizado 51002
stands@@ 50999
legion 50994
debuts 50991
還@@ 50985
requ@@ 50980
票 50980
Мэ@@ 50972
tennis 50967
层 50967
ниц@@ 50963
comuna 50956
当@@ 50955
propriete 50954
航空 50952
roc@@ 50951
شركة 50945
ingreso 50940
應@@ 50940
weiteres 50936
جهة 50936
لق@@ 50930
corporation 50922
schat@@ 50922
沃@@ 50922
8年 50916
blatt 50915
gleichnamigen 50911
giovanni 50910
взаимо@@ 50909
历史 50907
ль-@@ 50906
lut@@ 50904
ouvrages 50895
nino 50894
師@@ 50893
miss 50892
semaine 50881
landschaft 50872
убе@@ 50867
симво@@ 50865
果 50862
车@@ 50861
протяжении 50857
وية 50853
кам@@ 50844
ณ 50842
britanico 50836
tratado 50836
gent 50834
historische 50834
environnement 50833
juge 50829
licenci@@ 50826
eleg@@ 50822
фон@@ 50815
zweif@@ 50813
سك@@ 50808
nutzung 50801
гну@@ 50798
музыкан@@ 50783
射@@ 50782
resultat 50779
ukrain@@ 50779
сразу 50766
بالت@@ 50763
alles 50755
farb@@ 50754
lager@@ 50754
yıl 50752
sustitu@@ 50751
nacionales 50746
tierten 50746
Бен@@ 50746
مشتمل 50745
諾@@ 50743
-2 50740
aute 50740
literatur@@ 50740
ologue 50739
absor@@ 50733
120@@ 50729
牌 50724
britische 50722
lah@@ 50722
ult 50720
само 50715
ителями 50713
sovietique 50710
pole 50709
артиллери@@ 50709
cruz@@ 50703
horn 50702
studien 50689
erlau@@ 50684
trabajar 50682
歌@@ 50680
mart@@ 50672
ip 50671
мя 50669
viertel 50667
comercio 50661
море 50661
feier@@ 50652
minister@@ 50649
dr 50645
團 50643
pocos 50638
yu 50636
kern 50630
propag@@ 50623
rent@@ 50623
fruhjahr 50622
dam 50617
best 50615
parallel 50614
liberal 50609
кисло@@ 50609
客 50607
quiere 50603
футболист 50603
metall@@ 50602
musicales 50602
走 50601
mur 50599
namens@@ 50598
cuanto 50596
us-amerikanischen 50595
Три@@ 50592
1990er 50587
unabhang@@ 50577
animal 50575
philipp 50568
legi@@ 50563
ورة 50562
catolica 50561
5年 50554
igten 50554
prati@@ 50554
deroule 50545
veut 50544
Кол@@ 50541
土 50534
argent@@ 50528
brus@@ 50522
status 50514
regne 50504
参@@ 50499
daki 50496
partner 50496
Москвы 50492
работать 50489
sty@@ 50487
programas 50486
архите@@ 50482
importants 50480
wichtigsten 50477
diario 50476
依@@ 50471
verbindungen 50470
singles 50464
plic@@ 50462
lard 50461
выда@@ 50454
產 50441
ptt 50436
蒂@@ 50434
nui 50433
alliance 50428
inver@@ 50428
cinemato@@ 50425
consacre 50423
zeichnungen 50419
штат 50418
obr@@ 50407
16-@@ 50404
refu@@ 50403
وبلغ 50403
مجلس 50399
клас@@ 50392
Код 50391
amientos 50380
fußballspieler 50362
szene 50357
Кубка 50357
worfen 50355
cales 50353
дер 50348
时间 50346
оказа@@ 50345
succes@@ 50339
kanz@@ 50338
тая 50335
kleiner 50326
влияние 50322
prakt@@ 50317
artista 50309
ν 50308
islam 50307
хозяи@@ 50290
округ 50289
abor@@ 50284
clu@@ 50278
щ 50276
iler@@ 50265
signifie 50264
shin@@ 50263
zam@@ 50260
να@@ 50259
тым 50255
ls@@ 50254
щены 50254
kultu@@ 50246
рение 50241
bauer 50240
ministerio 50240
कछ 50234
bretagne 50227
мел@@ 50226
generales 50224
Đang 50217
сум@@ 50214
kenn@@ 50210
整@@ 50203
жден 50199
фронта 50194
gin@@ 50187
intensi@@ 50186
trager 50180
兵@@ 50170
титул 50169
zan 50161
現 50157
嘉@@ 50154
дел@@ 50143
wissenschaftler 50137
piedra 50136
sachsischen 50132
ibles 50130
sci@@ 50126
sidad 50126
aten@@ 50114
daran 50106
मा@@ 50105
похо@@ 50097
marina 50096
retraite 50096
عين 50088
colabor@@ 50081
virus 50079
命 50072
hidro@@ 50071
lernte 50070
улица 50069
промышлен@@ 50066
wick@@ 50055
оригина@@ 50054
aufgelost 50053
arque@@ 50046
пять 50042
dea 50039
附近 50032
estudiantes 50028
мед@@ 50026
чено 50021
trich@@ 50020
phi@@ 50018
pt 50018
gespr@@ 50013
母 50013
aragon 50010
iera 50010
кладбище 50007
incluyen 50002
europeen 49994
futbolista 49993
zentimeter 49986
ρ@@ 49983
Фор@@ 49978
beschran@@ 49977
Джон 49975
montagne 49973
религиоз@@ 49971
apostol@@ 49970
nikol@@ 49969
罗 49966
sende 49965
velocidad 49950
поро@@ 49948
martin@@ 49930
permis 49930
لديها 49928
образу@@ 49923
endes 49921
w-@@ 49920
tempor@@ 49917
mains 49915
belie@@ 49910
estreno 49909
orten 49908
wilson 49907
patr@@ 49902
wege 49902
bevolkerungs@@ 49901
kloster@@ 49901
genen 49896
июле 49894
รา 49878
apren@@ 49874
ادي 49874
ıl@@ 49870
baum 49869
350 49865
Ива@@ 49864
olympique 49862
赫@@ 49854
ती 49845
stoc@@ 49843
ονται 49838
вшим 49837
因為 49833
Великобритании 49831
spur@@ 49828
дебютировал 49825
投@@ 49822
мии 49821
trouver 49819
pi 49817
gom@@ 49815
unda 49808
eco@@ 49801
sik@@ 49800
ierungen 49797
legen 49796
east 49793
produjo 49787
versuchte 49775
ceau 49768
ys@@ 49767
alar 49765
службы 49760
fication 49759
weiler 49756
wild@@ 49754
берг 49752
verte@@ 49746
orchestre 49744
ковскии 49743
выполня@@ 49742
большое 49732
ition@@ 49726
ป@@ 49718
福 49699
britanniques 49695
jesu@@ 49689
zan@@ 49689
pan 49683
двух@@ 49679
став 49676
versucht 49675
1853 49673
couleurs 49672
0-е 49664
лета 49663
ตอมา 49662
ajou@@ 49660
турнира 49653
یا 49628
增加 49628
major@@ 49626
panzer@@ 49620
非@@ 49615
gustav 49612
tet@@ 49612
erweitert 49607
remon@@ 49598
branche 49594
rojo 49593
ना 49589
tourne 49588
cement 49577
posant 49577
angeboten 49566
rel 49563
aja 49561
erful@@ 49561
sohne 49561
phar@@ 49559
0er 49558
zap@@ 49555
給 49553
нес 49550
wirtschaftlichen 49548
हआ 49547
нику 49544
сты@@ 49532
دو 49532
اع 49530
机@@ 49529
unidades 49526
weißen 49526
Бре@@ 49524
mediterran@@ 49517
nghien 49512
αντι@@ 49512
philosoph@@ 49509
alizada 49508
ственное 49499
bleiben 49495
說@@ 49495
мскои 49494
пу 49493
kranken@@ 49492
hung@@ 49486
жных 49484
ερ@@ 49470
33@@ 49467
utiliser 49459
canon 49452
ungsan@@ 49444
Дж@@ 49444
دور 49440
onemli 49439
發現 49439
internacionales 49436
لعام 49433
пом 49419
schrit@@ 49418
vat@@ 49418
европеи@@ 49418
ike 49415
бои@@ 49408
fant@@ 49401
agne 49394
castilla 49393
ask@@ 49391
suivants 49390
посвя@@ 49390
conna@@ 49388
weltkrieges 49386
работа 49383
меи@@ 49382
故事 49362
gien 49359
quez 49359
khien 49358
erober@@ 49354
reclam@@ 49351
обеспечи@@ 49349
ност 49344
дав@@ 49342
гидро@@ 49331
ningun 49330
key 49321
1793 49317
voraus@@ 49316
juega 49311
cambios 49310
души 49308
emis@@ 49301
accep@@ 49296
lutte 49292
然 49292
usement 49287
наход@@ 49287
aufgefuhrt 49284
μπορει 49281
alfonso 49277
belle 49276
гах 49266
sweise 49263
spo@@ 49259
сона 49255
tigung 49249
внимание 49247
pseudo@@ 49246
دين 49234
passant 49233
larda 49232
furt 49231
apoy@@ 49230
дил 49226
actrice 49225
miss@@ 49223
freun@@ 49218
spin@@ 49217
интер@@ 49217
fassung 49215
展@@ 49208
conden@@ 49204
active 49195
ятся 49193
чаи@@ 49182
jetzt 49181
遊戲 49173
会@@ 49172
แ@@ 49167
selec@@ 49157
恩 49156
iss 49155
politik@@ 49154
iza 49149
演 49149
olmustur 49148
ню 49142
californie 49141
bewus@@ 49135
герман@@ 49135
menge 49131
mist@@ 49128
ตน 49126
scol@@ 49118
conf@@ 49114
вно 49111
marseille 49108
както 49106
imperial 49104
вари@@ 49102
一直 49099
華 49093
зм 49091
carretera 49090
обороны 49089
femin@@ 49083
bestimmt 49081
prison 49078
чную 49074
非常 49074
ابي 49073
रह 49071
suivre 49067
ologo 49064
وقت 49064
ehefrau 49053
гори@@ 49051
сили 49048
caractere 49032
dram@@ 49029
mexique 49021
animaux 49017
gliedert 49012
ьев 49011
برو@@ 49010
litter@@ 49009
या@@ 49007
保 49005
onom@@ 48997
201@@ 48992
virginia 48990
Петро@@ 48988
donald 48987
ciel 48984
pequenos 48980
standige 48973
obtenu 48971
Алексе@@ 48965
semaines 48964
dahin 48960
ieure 48956
предостав@@ 48951
поез@@ 48950
шин@@ 48949
يه 48949
freund 48947
Г 48944
четырех 48942
грам@@ 48941
landwirtschaft 48937
partis 48935
normal 48928
月@@ 48928
eles 48927
發展 48926
wert@@ 48924
sendung 48920
deckt 48912
centre-@@ 48905
liger@@ 48903
portee 48895
با 48890
kah@@ 48889
witsch 48889
июне 48886
封 48886
wall 48878
1846 48876
mek 48872
lineas 48870
schein@@ 48870
лица 48869
ud 48868
ментов 48867
ear@@ 48864
dom 48853
gelost 48853
nul@@ 48842
Кли@@ 48840
اته 48827
щает 48815
sym@@ 48812
ciona 48809
wissenschaftliche 48806
regulierement 48802
ум 48802
cida 48800
рассматри@@ 48798
ghi 48796
сельское 48795
annah@@ 48794
dj 48794
ministeri@@ 48793
umbenannt 48790
naturschutz@@ 48780
colum@@ 48771
消@@ 48770
6年 48766
duree 48762
win 48762
champ@@ 48760
emperador 48760
maisons 48760
gute 48756
gradu@@ 48755
espanoles 48753
lte 48753
нена 48753
}- 48752
dale 48751
coleccion 48748
lten 48748
жению 48747
udi@@ 48744
1845 48742
хе 48740
циаль@@ 48729
皇@@ 48725
intent@@ 48722
palabra 48720
вклю@@ 48716
воине 48714
suc@@ 48706
объя@@ 48705
comenz@@ 48703
gott 48697
Никола@@ 48689
الوقت 48686
формирова@@ 48682
angriff 48667
construido 48656
jap@@ 48655
任何 48652
rejoindre 48646
ят@@ 48646
14-@@ 48645
Же@@ 48642
stag@@ 48639
enzen 48635
parece 48629
فقط 48628
现@@ 48628
erhielten 48624
types 48622
вопро@@ 48621
дали 48614
واحد 48612
maj@@ 48605
tecn@@ 48596
Αν@@ 48595
preci@@ 48591
सन 48579
stadten 48576
cinquieme 48575
nguon 48574
verantwor@@ 48571
кси@@ 48567
unterneh@@ 48566
15,@@ 48563
tic 48563
1847 48561
hollywood 48558
7年 48557
ء 48557
организа@@ 48556
gelang@@ 48553
продол@@ 48550
zahlte 48547
мер 48544
ницу 48544
見 48537
explique 48535
بينما 48532
viaje 48528
sommet 48525
nour@@ 48523
senor 48519
coc@@ 48517
chlor@@ 48510
南部 48502
recep@@ 48501
erscheint 48496
70@@ 48493
alteste 48492
larının 48487
финансо@@ 48486
цвета 48486
renov@@ 48476
интере@@ 48470
श@@ 48470
張 48466
braun 48465
township 48465
pflanzen 48462
ritter@@ 48454
canadi@@ 48451
objectif 48451
сыгра@@ 48446
from 48445
schach@@ 48443
cham 48441
couver@@ 48440
genel 48438
demas 48437
pflanzen@@ 48436
engagement 48433
Аб@@ 48430
lieder 48421
сборную 48409
virgen 48406
語@@ 48404
воро@@ 48402
變 48402
дочь 48401
conocidos 48390
zeigte 48389
ecoles 48388
nungen 48384
ιος 48379
состава 48367
บ@@ 48365
ning 48364
ganze 48362
usd 48362
comporte 48361
второго 48360
klo@@ 48358
船 48357
оне 48356
temp@@ 48355
функции 48354
raz@@ 48346
ρα 48343
програм@@ 48342
ahi 48333
Уэ@@ 48332
verbreitet 48325
regular@@ 48320
tip@@ 48320
женщины 48308
กลม 48303
eg 48302
最@@ 48301
satzen 48299
chinois 48296
dargestellt 48296
lumiere 48296
краи@@ 48285
secretario 48283
อ@@ 48283
doute 48280
atelier 48279
чел. 48278
§ 48276
plateau 48274
tesis 48274
gida 48272
запу@@ 48264
soh@@ 48260
lik@@ 48256
head 48245
sowjetunion 48245
ffer 48243
類@@ 48241
teilnehmer 48235
etablissement 48229
結 48229
varie@@ 48223
escen@@ 48217
effic@@ 48210
besuch 48209
tomas 48206
превра@@ 48206
нены 48205
carbon@@ 48204
biz@@ 48202
τικης 48201
yapılan 48195
принци@@ 48193
жает 48189
مان@@ 48186
ционного 48185
kais@@ 48184
sicherheit 48181
stabil@@ 48181
cle 48180
whit@@ 48179
hessen 48172
klein 48171
genau 48163
تھا 48159
เชน 48159
amin@@ 48157
مت 48157
cerro 48156
schließ@@ 48154
วด 48154
gelassen 48151
waffen@@ 48150
bol 48146
distance 48145
вшихся 48142
unten 48130
улицы 48128
originalmente 48123
crois@@ 48122
representa 48122
europa@@ 48119
entro 48118
mistir 48111
готов@@ 48111
contient 48107
hubo 48106
literatura 48106
matiere 48101
đan 48099
сор@@ 48098
concep@@ 48094
還 48087
escri@@ 48081
laurent 48081
agen 48078
lex@@ 48078
забил 48069
referirse 48064
از 48064
стави@@ 48063
зда@@ 48060
други 48059
11-@@ 48051
economica 48048
fondateur 48047
щим 48045
дни 48044
рос@@ 48043
arak 48042
المخ@@ 48040
parle 48038
позднее 48036
banco 48034
ith@@ 48028
ologica 48026
moglichkeiten 48018
ک@@ 48018
сдела@@ 48016
offic@@ 48012
сем@@ 48012
центре 48005
eco 48001
comics 48000
控制 47998
beschaftigt 47997
положение 47997
sia 47991
街道 47984
erfolgreich@@ 47976
歌曲 47976
стами 47972
ησε 47971
peinture 47970
bronce 47969
традицион@@ 47964
проходит 47959
сына 47956
комплек@@ 47953
affaire 47948
familles 47947
нем@@ 47945
amo 47939
genet@@ 47937
coi 47927
aille 47921
stil@@ 47917
punk@@ 47910
bibliotheque 47908
party 47908
versorgung 47907
fahren@@ 47904
austral@@ 47896
характер@@ 47896
verfas@@ 47895
jeunesse 47874
massachusetts 47874
medien 47873
形@@ 47870
verhalten 47866
hart 47857
xac 47853
च 47843
etape 47840
haw@@ 47833
ционных 47828
电影 47815
gada 47812
europeo 47810
景@@ 47806
jak@@ 47805
программы 47804
подтвер@@ 47799
gent@@ 47796
integri@@ 47795
لكن 47787
وه@@ 47781
успеш@@ 47780
preis@@ 47779
irement 47777
رين 47775
paroisse 47773
图@@ 47773
abd 47771
ضد 47771
standort 47770
комитета 47767
versuch 47765
schut@@ 47753
circuit 47752
ลา 47752
premios 47750
cev@@ 47742
эпизо@@ 47741
ولاية 47740
anfang@@ 47738
kut@@ 47711
黨 47710
parlament 47709
romans 47709
tron 47702
слова 47699
taylor 47696
guy 47695
pista 47691
แรก 47688
verbandes 47683
itre 47677
research 47676
revolution@@ 47667
anges 47665
дивизия 47662
уэ@@ 47662
очередь 47659
margar@@ 47658
след@@ 47657
البحر 47656
務@@ 47653
damp@@ 47649
рова 47649
мал@@ 47647
محافظة 47647
capacite 47645
olympi@@ 47645
фло@@ 47639
gique 47635
liberte 47635
ванием 47632
durfte 47628
temperatur@@ 47626
largement 47625
durchmesser 47620
elemente 47620
beig@@ 47616
stit@@ 47615
Чи@@ 47613
resultados 47611
maestro 47603
vive 47602
polnischen 47600
favor 47596
tung@@ 47596
marsch@@ 47593
forderte 47591
night 47588
деиство@@ 47584
soldados 47576
инстру@@ 47576
wirtschaftliche 47574
المر@@ 47563
obtener 47561
由@@ 47560
沙 47554
ukraine 47550
yol 47550
cra@@ 47546
edifice 47543
цам 47538
blues 47536
catedral 47535
strecken@@ 47530
وري 47530
alcanzar 47513
1806 47511
sebekesi 47511
استخدام 47510
char 47506
schluss@@ 47500
blie@@ 47499
theor@@ 47499
fach 47492
schaden 47491
lerinin 47484
augu@@ 47482
纳 47481
岁 47480
conser@@ 47473
utilizado 47473
venus 47473
hopital 47470
сре@@ 47468
au-dessus 47462
sieb@@ 47454
Советского 47450
العمر 47447
entierement 47445
апреле 47439
dehn@@ 47436
μο 47436
gehen@@ 47433
слав@@ 47433
nua 47432
istique 47430
perfec@@ 47427
statue 47427
gesprochen 47425
alismus 47421
acab@@ 47419
والذي 47418
союз@@ 47417
jugar 47410
fruch@@ 47409
cathedrale 47404
ecer 47402
قية 47402
vereine 47401
isine 47392
ομαδα 47390
petites 47389
camer@@ 47383
potenti@@ 47383
dat 47378
avenida 47369
carr@@ 47368
1842 47367
justicia 47366
avenue 47364
alcanzo 47363
rait 47363
мину@@ 47363
флота 47355
الاي@@ 47355
ดาน 47352
Длина 47349
密 47349
carolina 47344
получи@@ 47342
utilises 47341
faisait 47338
considera 47337
abitur 47335
chois@@ 47334
tecnica 47334
iller@@ 47323
apparition 47317
лам 47315
cadena 47306
มาก 47301
zir@@ 47298
藏 47296
دو@@ 47295
felder 47294
maschinen@@ 47293
musikal@@ 47293
правило 47292
i.@@ 47290
manif@@ 47289
вах 47289
gelten 47287
angehor@@ 47285
студен@@ 47282
iv. 47280
απ@@ 47278
ouver@@ 47274
留 47274
voll 47271
toronto 47270
θηκαν 47263
hypo@@ 47262
servi@@ 47261
باسم 47256
ган 47254
вышла 47253
offenen 47252
traten 47251
фир@@ 47248
cay@@ 47247
ющими 47247
اكبر 47246
contro@@ 47245
inscr@@ 47245
romaine 47242
mıstır 47237
клад@@ 47236
perd 47234
numerosas 47231
tus@@ 47219
ize 47214
enregistre 47199
cardi@@ 47197
villages 47195
occup@@ 47187
spricht 47181
avant@@ 47177
romain 47175
之前 47174
haciendo 47172
зрения 47172
laufen 47171
emig@@ 47166
1821 47165
進士 47164
деи 47159
الدولة 47155
жнои 47149
navires 47148
гли@@ 47143
sonnen@@ 47142
4年 47141
ноябре 47139
→ 47137
房 47135
承@@ 47132
barbara 47128
lina@@ 47126
الشيخ 47126
менты 47123
государствен@@ 47118
journaliste 47117
orthodo@@ 47116
дне@@ 47111
bergen 47106
ян 47106
llega 47104
dants 47103
exterieur 47103
jersey 47103
ns@@ 47094
عات 47090
mittelalter 47089
جو@@ 47089
arbit@@ 47088
critiques 47085
ордена 47082
эти@@ 47082
членов 47080
suelo 47079
fall@@ 47074
pant@@ 47073
रि@@ 47067
cun@@ 47062
रो@@ 47061
states 47057
tica 47056
عي 47046
lerde 47044
aquel 47043
facil@@ 47040
Таким 47036
ıs@@ 47029
corresponden 47023
бов 47023
lose 47018
lanzamiento 47017
suc 47012
ecriv@@ 47010
الاخرى 47010
素 46998
sevilla 46997
souver@@ 46995
beziehungen 46991
ludwig@@ 46991
правительства 46988
host@@ 46986
ьера 46983
religieux 46970
auto 46969
erklart 46967
clan@@ 46962
tenberg 46956
كبير 46955
adi 46954
ram 46953
eingerichtet 46952
hause 46952
itz@@ 46948
lander@@ 46947
37@@ 46945
brandenburg 46944
unterhalb 46944
klar 46938
персона@@ 46934
фикации 46934
недо@@ 46932
vermut@@ 46929
看 46929
Ζ@@ 46926
emplo@@ 46923
итов 46921
imi 46917
sembl@@ 46913
telles 46910
engel@@ 46901
signif@@ 46896
президента 46895
стране 46895
haft@@ 46889
cuar@@ 46874
гото@@ 46872
форма@@ 46872
余 46871
чается 46866
commandement 46860
wirken 46858
سكان 46857
nais 46851
weib@@ 46851
دار 46850
服 46850
bauen 46844
r.@@ 46844
podia 46828
во-@@ 46827
gewal@@ 46824
самого 46820
bleibt 46819
ronda 46817
ından 46811
ενας 46810
etienne 46805
lat 46799
二十@@ 46784
ทำ 46783
processus 46782
vag@@ 46776
davis 46775
entrain@@ 46774
estu@@ 46772
erzie@@ 46766
इसक 46761
bestritt 46759
brenn@@ 46759
мог 46757
سم@@ 46756
operations 46752
вока@@ 46752
blanche 46750
indu@@ 46736
опы@@ 46732
該 46732
констру@@ 46731
docum@@ 46730
述 46729
kie@@ 46727
giang 46725
好@@ 46724
وز@@ 46723
austria 46717
деиствие 46714
systemes 46713
codice 46711
act 46710
basse 46702
missions 46701
根据 46701
obispo 46699
stammte 46698
erwer@@ 46689
polonais 46688
λα@@ 46687
oper 46685
sig 46678
rei 46675
atteindre 46674
соответствии 46671
participation 46668
главе 46657
arzt 46655
поня@@ 46650
rekor@@ 46646
telle 46645
simil@@ 46642
fondo 46639
帶 46637
Ф 46636
zulas@@ 46635
женных 46631
oficiales 46625
orio 46622
anteriores 46618
kra@@ 46616
طة 46616
altar@@ 46611
elektron@@ 46610
marin@@ 46609
oriente 46609
vote 46607
kau@@ 46601
mers 46591
sement 46591
宣布 46591
พ@@ 46589
architekten 46587
besaß 46587
hamburger 46584
ذكر 46583
พระองค 46579
ısı 46578
ذ 46576
universal 46575
konzept 46573
opo@@ 46568
भ@@ 46568
trouv@@ 46567
设计 46563
guatemala 46558
ikinci 46556
besondere 46554
sola 46553
continental 46552
рэ@@ 46550
treten 46544
одном 46535
ابة 46532
този 46528
episodes 46526
黄@@ 46522
licht@@ 46513
zeitig 46498
circonscription 46497
particular 46494
produktions@@ 46494
aque 46493
ador@@ 46489
zahlung 46488
bestimmten 46487
monte@@ 46487
راي@@ 46484
離@@ 46477
延@@ 46475
cercan@@ 46474
realiza 46462
одновременно 46451
ทม 46447
notre 46446
reu 46446
итоге 46440
quil@@ 46439
удо@@ 46436
gere 46433
zeichnete 46428
fuß 46425
ignant 46422
查 46420
embl@@ 46417
senden 46411
gir 46410
zentrale 46402
感@@ 46402
saf@@ 46401
邊@@ 46400
heimat 46396
Тор@@ 46392
рик 46386
illu@@ 46384
traverse 46383
кну@@ 46382
oto 46381
Сергеи 46375
совет 46373
получили 46372
verschie@@ 46364
1835 46363
estrella 46360
класса 46360
prest@@ 46359
legt 46353
气@@ 46353
1813 46352
acion@@ 46351
jus@@ 46350
решения 46345
grafschaft 46336
keit 46332
debat@@ 46331
platte 46325
acer@@ 46316
conqu@@ 46316
molec@@ 46312
ci-@@ 46310
бран@@ 46307
1834 46305
projets 46303
люди 46303
popul@@ 46299
擊 46299
трех@@ 46296
Е. 46295
illi@@ 46294
ruckkehr 46291
trib@@ 46288
ленного 46286
atoren 46282
existencia 46282
conec@@ 46280
τει 46277
рата 46275
amigo 46273
geschoss 46272
песен 46267
alien 46264
rate 46264
anton@@ 46262
sale 46262
собира@@ 46262
hex@@ 46261
sine 46260
являлся 46258
conduit 46257
aitre 46256
eigentlich 46255
屬@@ 46252
око@@ 46246
four 46245
σης 46243
بر 46242
自由 46234
бург@@ 46230
uns 46229
рованных 46229
definition 46222
jum@@ 46220
微@@ 46219
сту 46202
считается 46202
navire 46195
ego 46194
classes 46193
ани 46193
контра@@ 46184
меры 46179
latinos 46178
pam@@ 46177
已经 46176
tren@@ 46175
ulacion 46175
اليمن 46169
regiones 46163
szen@@ 46161
這個 46161
racing 46160
曼 46152
familias 46148
結@@ 46135
discipl@@ 46133
uler 46125
rig@@ 46120
эле@@ 46118
martinez 46115
ματος 46112
koy 46111
服務 46107
義 46107
madera 46102
мастер@@ 46102
гами 46098
бор 46095
速 46095
inneren 46094
activ@@ 46089
vont 46080
vinh 46079
sultan 46077
ску 46077
Ленинград@@ 46074
лог 46074
besitz@@ 46070
фре@@ 46069
oci@@ 46064
mari 46062
aristo@@ 46061
命名 46060
lei 46055
politicas 46054
produce 46052
руко@@ 46052
रस 46044
deg@@ 46041
stehenden 46040
envo@@ 46035
зации 46034
stars 46031
Β 46028
samt 46024
www.@@ 46022
alex 46020
gunst@@ 46020
版本 46018
ninguna 46011
就@@ 46011
parteien 46010
enburg 46007
草@@ 46003
erzbischof 45998
geschlos@@ 45997
simul@@ 45997
выше 45996
cker 45995
stud@@ 45986
zweig@@ 45983
kennt@@ 45978
деистви@@ 45976
instrument 45975
журнала 45972
tad@@ 45963
magnet@@ 45961
d.@@ 45959
marien@@ 45954
الرسمي 45954
deroul@@ 45953
critica 45951
osen 45951
写 45949
на-@@ 45942
вариан@@ 45937
毛 45935
difficile 45932
ειο 45929
p.@@ 45927
също 45924
ктом 45920
Бан@@ 45912
nucle@@ 45911
dw@@ 45910
etudiants 45906
Член 45897
over@@ 45892
traslad@@ 45889
freiheit 45886
biel@@ 45885
fuego 45882
down 45881
шан@@ 45878
Испании 45876
ostlichen 45874
п. 45874
kem@@ 45873
redi@@ 45872
ственно 45868
entum 45865
кта 45863
termes 45856
ierungs@@ 45849
З 45849
1837 45844
генерал-@@ 45844
tche@@ 45841
ปจจบน 45837
节 45828
manager 45827
dure 45825
عملية 45821
nungs@@ 45818
liberation 45816
лагер@@ 45809
позволя@@ 45808
фе 45808
werde 45802
ари 45802
уез@@ 45799
abon@@ 45791
Жи@@ 45789
efecto 45784
spanischen 45780
geschlech@@ 45779
sische 45775
السي@@ 45775
diagnost@@ 45772
practica 45770
ilis@@ 45769
onu 45769
nden 45768
dramat@@ 45765
benh 45760
общеи 45760
traslado 45758
одно 45752
出現 45749
1838 45744
long@@ 45744
рал 45743
ferner 45734
haushal@@ 45734
unites 45734
rung 45732
大量 45728
sichtlich 45726
score 45725
erfolgre@@ 45724
меж@@ 45723
نفس 45722
gehend 45721
nisch 45721
военных 45720
теории 45711
одино@@ 45708
circun@@ 45702
isen@@ 45697
bruno 45695
告 45693
vertrat 45691
свидетель@@ 45690
lewis 45680
komple@@ 45678
разв@@ 45673
karsı 45666
同時 45659
fernsehen 45655
hora 45655
icinde 45651
л-@@ 45647
تضم 45646
phien 45644
publik@@ 45644
clave 45643
произо@@ 45643
الملك 45641
falta 45639
data 45634
уси@@ 45634
cuest@@ 45627
eugene 45627
manu@@ 45621
فا 45615
couple 45614
дво@@ 45607
schauspielerin 45606
團@@ 45603
故 45599
Англии 45597
juridi@@ 45596
moskau 45596
pilote 45589
enc@@ 45583
erne 45582
органи@@ 45578
promedio 45576
мень@@ 45575
รวม 45574
sionen 45573
игре 45573
ктов 45573
мых 45571
сте 45571
雅@@ 45568
بل 45559
设 45553
производство 45552
华 45552
امة 45549
ционнои 45542
frank@@ 45538
gon 45537
درجة 45534
vente 45533
eck 45530
mia 45522
empfang@@ 45516
especific@@ 45510
ไทย 45509
wirtschaft@@ 45508
броне@@ 45501
वाल 45500
дебю@@ 45498
krafte 45497
отсут@@ 45496
утвержда@@ 45493
зин@@ 45490
略 45482
communication 45478
llegada 45477
моби@@ 45477
diszi@@ 45460
出版 45452
ец 45450
丹@@ 45444
enfer@@ 45430
franzosischer 45426
bail@@ 45420
tres@@ 45410
чни 45409
ονομα 45405
察 45404
117@@ 45403
uli@@ 45398
championship 45397
composition 45394
veranstaltungen 45390
يح@@ 45373
contrain@@ 45371
завое@@ 45369
نوع 45367
stoffe 45366
breit 45365
berufs@@ 45357
enter 45357
uefa 45354
пост 45351
bestimmte 45348
armees 45344
цик@@ 45344
egi@@ 45341
1844 45337
емои 45337
сеи 45336
perten@@ 45334
उस 45331
distintos 45330
смер@@ 45329
περιοχη 45328
giup 45321
Японии 45316
1836 45314
encontraba 45312
zip@@ 45312
сельсовет 45309
christoph 45308
refuse 45308
нали@@ 45306
toulouse 45300
серьез@@ 45297
羅 45296
vorstand 45290
國家 45283
obstante 45276
101 45273
रो 45273
psic@@ 45271
iliz@@ 45266
сол@@ 45266
victoires 45260
комму@@ 45260
erziel@@ 45253
бен@@ 45247
ibn 45240
ला@@ 45236
herbert 45233
военного 45227
участок 45227
ciendo 45226
uo 45225
Бри@@ 45222
американскии 45221
flugel@@ 45219
hd 45216
tradicional 45216
iba 45209
бронзо@@ 45206
zunehmend 45202
199@@ 45201
فق@@ 45201
насчиты@@ 45200
gou@@ 45193
店 45191
maintenant 45180
хорошо 45180
соору@@ 45179
heidelberg 45177
wodurch 45177
bout 45174
уни@@ 45174
aqui 45172
朝@@ 45171
спустя 45165
таи@@ 45164
realite 45162
вали@@ 45161
後來 45161
οντας 45152
聯 45152
Первои 45142
млад@@ 45141
така 45134
Кам@@ 45132
феврале 45130
設計 45129
快 45125
Киев@@ 45124
giap 45119
arı 45118
ना@@ 45117
little 45114
iria 45112
uve 45112
fre 45111
patrimoine 45111
etta 45110
rous@@ 45108
司 45092
servir 45091
tunnel 45088
erkennen 45086
害 45080
ลก 45076
locale 45074
rados 45074
площади 45074
gres 45071
eishoc@@ 45070
2004年 45068
Мария 45064
gelegene 45061
palabras 45056
времен@@ 45056
proteger 45053
hard@@ 45050
Иль@@ 45049
habi@@ 45041
здания 45035
conflit 45034
ท@@ 45026
находятся 45025
traf@@ 45022
expression 45019
hors 45018
turen 45014
索 45014
memoire 45010
verfassungs@@ 45008
держи@@ 45005
thuan 45004
igkeiten 44998
графа 44998
eus 44997
1832 44995
зам@@ 44995
manque 44992
строительство 44992
thich 44991
corona 44990
государственныи 44990
εως 44988
1810 44987
μ 44982
組@@ 44982
существо@@ 44979
известныи 44976
Хан@@ 44973
phas@@ 44970
enda 44964
社@@ 44960
oh@@ 44959
autoren 44955
ativ 44949
Прав@@ 44949
ย@@ 44948
google 44946
ulen 44944
姆@@ 44944
1820 44942
sibles 44942
зву@@ 44941
chasse 44939
evitar 44934
произ@@ 44934
новым 44933
kommunik@@ 44930
vincent 44930
crecimiento 44927
cang 44923
nuestra 44921
nominiert 44920
atos 44919
ritu@@ 44916
italien@@ 44914
med@@ 44912
ственная 44912
sicherung 44907
tradicion 44907
rh@@ 44906
europ@@ 44905
остров 44895
provi@@ 44893
诺@@ 44889
studien@@ 44888
использу@@ 44888
ох@@ 44887
为@@ 44886
партия 44885
ille@@ 44884
santos 44881
नाम 44880
различ@@ 44875
собра@@ 44869
veritable 44867
удар@@ 44862
rest 44857
望 44853
стра 44850
emment 44848
mr@@ 44847
deutschlands 44845
probablemente 44843
главного 44839
vino 44838
alcanz@@ 44835
benjamin 44833
gezeigt 44831
suce@@ 44830
etabli@@ 44829
colonel 44828
evangelischen 44828
verlegt 44828
орденом 44826
sep@@ 44825
faveur 44821
unterschiedlichen 44819
brucken 44815
chuan 44815
Нор@@ 44815
arquitectura 44814
schmidt 44809
tek 44803
esses 44802
ايي 44795
positionen 44791
posterior 44786
konigs 44775
时期 44775
mantuvo 44773
anter@@ 44772
шими 44763
pasar 44756
rho@@ 44752
orange 44745
noble 44744
beziehung 44740
peut-etre 44740
fallecio 44738
सि@@ 44732
нова@@ 44731
informationen 44730
і@@ 44728
经@@ 44722
重新 44720
1831 44713
議@@ 44706
bit 44705
zes@@ 44705
steph@@ 44695
virtu@@ 44686
distan@@ 44683
haz@@ 44683
schau 44682
τικων 44678
变@@ 44678
practic@@ 44676
grenzt 44675
hiep 44671
доку@@ 44666
eve 44654
deleg@@ 44653
隆 44645
視@@ 44640
renaissance 44633
иским 44633
devo@@ 44626
hu 44626
имели 44624
itation 44613
см. 44613
madchen 44608
parvient 44606
اسرة 44605
shof 44601
οποιος 44601
verstar@@ 44599
articles 44595
manchester 44594
mi-@@ 44593
diffusion 44592
elos 44590
visite 44589
1839 44584
死@@ 44584
產@@ 44582
ющихся 44580
gestaltet 44579
ору@@ 44573
fang@@ 44571
industrial 44571
點@@ 44565
завода 44563
fundam@@ 44562
魯@@ 44558
aux@@ 44553
wolf 44550
لف@@ 44547
numeros 44543
auflosung 44542
farbe 44539
iko@@ 44539
appartenant 44538
كا 44538
بري@@ 44537
grec 44536
甚至 44535
ecuador 44533
дь 44531
puisque 44530
預@@ 44529
italienne 44526
futur 44524
reak@@ 44523
repe@@ 44521
Административныи 44521
ligisten 44517
д-@@ 44516
ganar 44515
hit 44514
музыки 44514
kongress 44507
управление 44506
5000 44503
n.@@ 44501
революции 44501
bewohn@@ 44497
zweimal 44497
ppen 44486
tokyo 44486
vias 44486
cimetiere 44485
entren@@ 44485
質 44485
aura 44482
deutsch-@@ 44482
tomar 44481
ordent@@ 44480
Всего 44480
سر@@ 44472
христиан@@ 44471
belegt 44468
say 44458
unes 44452
atif 44448
ugen 44447
αιωνα 44445
lebens 44433
alguna 44431
leh@@ 44431
板 44429
meilleurs 44426
splat@@ 44425
1843 44422
apertura 44419
klin@@ 44418
бира@@ 44417
quant@@ 44415
рю@@ 44410
узна@@ 44410
顿 44408
dinero 44404
schir@@ 44402
commun 44399
17-@@ 44397
leuch@@ 44395
Ев@@ 44393
مربع 44388
atico 44385
pf 44385
fahigkeit 44384
links 44384
volon@@ 44380
posse@@ 44377
nacion 44375
sudostlich 44372
直 44369
begin@@ 44366
дея@@ 44364
concert 44362
autores 44361
讓@@ 44360
lanzo 44356
lerinde 44355
पत 44354
感 44354
jerusalem 44353
方法 44351
اقليم 44349
eder 44346
maschine 44342
astro@@ 44341
Авто@@ 44335
laufer 44328
locaux 44322
пока 44320
μου 44319
состоянию 44318
лки 44313
equili@@ 44311
火 44310
ante@@ 44308
bek@@ 44307
endet 44303
創@@ 44303
larında 44300
пунктов 44298
ството 44295
Поль@@ 44289
tigten 44287
low 44283
नि@@ 44280
games 44275
gim@@ 44275
tiempos 44274
woh@@ 44273
血@@ 44271
carlo 44267
достаточно 44265
層 44262
aeropuerto 44261
условиях 44260
disen@@ 44259
звез@@ 44259
чита@@ 44259
佛 44255
直接 44254
continua 44253
fundo 44251
reiches 44248
景 44248
Στις 44247
iven 44245
forderungen 44244
nachrich@@ 44241
debuto 44238
localite 44237
姆 44236
historiker 44234
marcel 44228
pourtant 44228
articulo 44223
ไว 44218
entwick@@ 44217
rei@@ 44217
digkeit 44216
抗@@ 44213
hyper@@ 44212
聲@@ 44210
sonne 44206
sable 44204
autriche 44195
verander@@ 44195
थित 44195
чек 44191
البي@@ 44191
攻@@ 44190
裡 44183
雙@@ 44179
effectu@@ 44176
написал 44174
批 44170
ramon 44169
расположен@@ 44168
ebenda 44155
inus 44155
президент 44155
lados 44152
meisterschaften 44152
comerci@@ 44151
警@@ 44147
efec@@ 44146
verfassung 44145
eduardo 44140
vang 44140
traitement 44138
колхо@@ 44131
funciones 44129
energi@@ 44121
verlie@@ 44116
cis 44104
luat 44104
temporadas 44104
يست@@ 44100
assist@@ 44098
hal 44091
1841 44084
mutter@@ 44083
الاب@@ 44083
algun 44079
proz@@ 44079
pp 44065
lop 44064
ترا@@ 44062
ровки 44052
захват@@ 44048
16,@@ 44044
theme 44044
stets 44041
飛@@ 44041
gebrau@@ 44040
матчеи 44039
funk 44038
ignent 44034
amaz@@ 44032
5.000 44030
fundada 44015
τρ@@ 44007
stock 44006
заяв@@ 44004
col 43996
верх@@ 43986
gebirge 43985
cripcion 43982
verg@@ 43981
qualifikation 43980
τερ@@ 43979
Гла@@ 43975
eve@@ 43974
angri@@ 43960
милли@@ 43955
мыш@@ 43955
prufung 43953
clem@@ 43947
issen 43947
stech@@ 43940
студи@@ 43939
vertic@@ 43931
auswahl 43924
Свя@@ 43918
просто 43917
nantes 43914
fans 43906
usado 43905
bam@@ 43904
coron@@ 43900
nhen 43898
beleg@@ 43895
etap@@ 43895
pru@@ 43895
camar@@ 43892
viz@@ 43891
alex@@ 43888
объяв@@ 43886
cuenca 43884
днев@@ 43878
douze 43877
avrupa 43875
pseudon@@ 43874
183@@ 43870
岸 43870
magist@@ 43868
деиству@@ 43867
diffic@@ 43856
нан@@ 43852
1833 43849
完全 43849
azul 43845
kosten@@ 43844
erne@@ 43843
bircok 43838
奖 43837
inspire 43831
final@@ 43830
diam@@ 43827
пит@@ 43827
uoc 43816
asimismo 43812
шах@@ 43812
afir@@ 43804
angelegt 43804
einrichtung 43804
vain@@ 43804
विश 43804
rural 43801
сва@@ 43799
pfarrer 43798
vingt-@@ 43790
воль@@ 43789
corpor@@ 43787
計 43781
bereiche 43780
xes 43780
πο@@ 43779
filles 43776
romisch-@@ 43776
проду@@ 43772
profession@@ 43771
cir 43764
ortste@@ 43758
dollars 43755
вили 43753
landais 43752
vieux 43750
期@@ 43746
фу@@ 43743
reforme 43734
Ам@@ 43733
tach@@ 43725
Стар@@ 43718
personnel 43716
Москов@@ 43716
crisis 43715
fungi@@ 43711
permettre 43710
grunde 43706
配@@ 43703
ступа@@ 43700
oppose 43697
luci@@ 43696
pris@@ 43693
fete 43692
nia 43691
politisch 43691
статисти@@ 43691
europea 43687
直到 43687
रा 43685
3,5 43684
parce 43680
числа 43678
gesche@@ 43677
j.@@ 43670
gefe@@ 43666
典 43666
daraus 43663
teilte 43662
finit 43661
accompagne 43657
informations 43657
cdu 43656
мето@@ 43649
категории 43645
st-@@ 43633
джи@@ 43631
志 43628
компа@@ 43626
宋 43622
mesi 43621
требу@@ 43621
реке 43619
नी 43602
anfangs 43600
198@@ 43597
боевых 43597
Ры@@ 43596
cem@@ 43594
الرو@@ 43592
ferr@@ 43590
automobil@@ 43579
ermor@@ 43576
flora 43576
职 43575
jules 43570
blanca 43569
烈 43559
штаба 43555
tah@@ 43552
habl@@ 43547
bands 43540
sinn 43539
終@@ 43531
рая 43527
ογ@@ 43525
работает 43525
besitzen 43521
trocken@@ 43520
pobl@@ 43519
aust@@ 43516
therap@@ 43516
orgel 43513
unteren 43513
chute 43511
tatsachlich 43509
acte 43508
tisch 43505
技术 43505
spon@@ 43500
影響 43500
ген 43497
peine 43492
lle@@ 43487
вну@@ 43481
municipios 43479
одну 43467
推出 43465
fleuve 43463
ucion 43462
Син@@ 43458
اه 43458
исследовании 43451
tiz@@ 43449
gence 43448
деву@@ 43448
若 43448
inicialmente 43447
моде@@ 43446
мест 43445
sudwestlich 43440
fortement 43436
æ@@ 43430
crise 43423
裝 43421
politicos 43420
bresil 43419
записи 43419
berlin-@@ 43412
ganzen 43408
mica 43406
فيلم 43400
понима@@ 43396
质 43396
contaba 43395
nghiem 43393
dire 43379
野@@ 43376
iciones 43374
раст@@ 43372
atribu@@ 43371
ологи@@ 43371
constant@@ 43368
autorites 43363
franzos@@ 43363
появ@@ 43356
เอ 43355
buhne 43353
decen@@ 43353
df@@ 43350
maximo 43349
decreto 43345
Филип@@ 43334
formig 43328
剧 43326
wesentlich 43325
取@@ 43322
का@@ 43321
знамени@@ 43317
瑞@@ 43317
начали 43314
basladı 43311
klim@@ 43308
crip@@ 43307
病 43302
spiegel 43300
نق@@ 43297
陸@@ 43294
технологии 43293
rollen 43283
philipp@@ 43281
massen@@ 43280
irent 43278
cen 43277
modernis@@ 43277
decret 43272
forest@@ 43268
圖 43268
aces 43267
معهم 43263
thuyet 43262
вше@@ 43262
heinz 43261
onte 43260
большинство 43259
Бел@@ 43258
pronto 43256
суб@@ 43250
арти@@ 43247
haber@@ 43246
одноимен@@ 43245
दो 43244
romano 43239
exig@@ 43237
Αλ@@ 43236
hausern 43232
schick@@ 43232
Севернои 43230
стать 43227
anciennes 43226
schmal@@ 43223
傳 43220
faite 43219
сто 43214
weig@@ 43212
hicieron 43208
муниципального 43205
ครง 43198
geschaft 43197
apper 43196
Đay 43196
nhanh 43194
количе@@ 43192
θε@@ 43191
مين 43184
borg 43183
огром@@ 43183
พบ 43183
dp 43178
peso 43168
minute 43165
佛@@ 43162
交通 43159
formada 43157
мин 43157
coordin@@ 43156
naturel 43155
жо@@ 43155
жем 43151
errichtete 43144
amigos 43142
milli@@ 43141
entweder 43124
modernen 43120
sischen 43119
moglicherweise 43118
frederic 43117
ulti@@ 43114
молодеж@@ 43114
duy 43108
ρ 43105
求 43104
mart 43101
alisee 43100
25-@@ 43099
japanischen 43093
bereichen 43091
edificios 43091
Вскоре 43091
ennung 43086
hub@@ 43082
docteur 43078
Н 43074
staf@@ 43071
fit@@ 43070
wahlkreis 43065
zwang@@ 43065
mode@@ 43060
nou@@ 43056
кен@@ 43055
spitz@@ 43054
geschaffen 43052
сторо@@ 43052
roberto 43051
betreib@@ 43045
evento 43045
viennent 43041
faits 43034
干@@ 43031
o.@@ 43023
horizon@@ 43016
escap@@ 43014
akade@@ 43009
us-dollar 43004
aldo 43000
fundado 42997
join@@ 42997
sean 42997
вил 42996
eos 42995
Мер@@ 42994
lenh 42991
schreiben 42991
baut 42987
различные 42981
mex@@ 42979
峰 42972
denom@@ 42965
攻 42965
несмотря 42962
retab@@ 42959
سن@@ 42959
gelegentlich 42957
strecken 42955
avanz@@ 42953
ierter 42953
สำหรบ 42947
kontakt 42946
започва 42944
homo@@ 42941
besetzung 42938
支@@ 42938
muon 42937
так@@ 42937
schnell@@ 42936
annon@@ 42932
plane 42931
ομως 42926
потеря@@ 42914
azado 42907
alteren 42901
жить 42896
elizabeth 42895
behorden 42894
complete 42893
vorge@@ 42890
Απο 42886
حجم 42884
usu@@ 42883
sonn@@ 42880
黨@@ 42876
abger@@ 42875
bahia 42875
etudi@@ 42875
emos 42874
lincoln 42873
عمر 42872
atencion 42867
captur@@ 42866
战争 42866
yas 42858
eure 42856
rug@@ 42853
campos 42848
нове@@ 42840
verstor@@ 42836
halt@@ 42832
исследования 42829
康 42829
chaus@@ 42825
يم@@ 42824
الثانية 42812
acerca 42811
標@@ 42811
nahezu 42804
Окончил 42804
pays-bas 42803
музеи 42802
argentin@@ 42801
象 42799
ivamente 42796
عر@@ 42794
auftrit@@ 42788
automobile 42787
uniquement 42787
группу 42785
hojas 42781
قسم 42781
упомина@@ 42780
venta 42776
affec@@ 42773
использовать 42772
秀 42770
franco 42767
приме@@ 42767
которому 42766
中华人民 42765
volun@@ 42763
Лин@@ 42760
主义 42760
franch@@ 42757
miles 42756
ωση 42756
yendo 42749
最佳 42746
ejecu@@ 42744
Эта 42741
親@@ 42741
безопасности 42738
真 42736
近@@ 42731
alben 42730
教授 42727
ляют 42720
sigkeit 42719
poses 42718
психо@@ 42713
schwerpunkt 42710
专@@ 42710
anteriormente 42709
maladie 42707
rohr@@ 42706
條 42705
griechischen 42704
labor 42704
ße 42704
victor@@ 42700
litz 42699
zig@@ 42699
elas 42694
الدين 42683
[...]
